<unk>	0
<s>	0
</s>	0
.	-3.70084
,	-3.90901
▁"	-4.03006
▁the	-4.17364
▁	-4.51483
▁and	-4.51592
▁to	-4.59546
."	-4.59709
s	-4.62929
▁في	-4.68079
▁of	-4.70159
▁من	-4.71635
:	-4.85513
،	-4.95879
▁in	-5.0672
"	-5.07155
▁،	-5.13601
▁على	-5.23143
▁a	-5.23155
▁و	-5.40498
▁for	-5.41846
▁-	-5.42772
▁is	-5.44628
▁you	-5.44892
-	-5.70827
▁(	-5.7218
▁with	-5.80718
)	-5.82884
▁your	-5.88053
ة	-5.88705
▁أن	-5.94426
▁are	-5.96158
▁إلى	-5.97084
▁أو	-6.03179
▁be	-6.05179
▁on	-6.06504
▁can	-6.08652
▁مع	-6.10229
'	-6.11236
▁or	-6.15417
ات	-6.19818
ing	-6.22812
▁our	-6.29582
▁وال	-6.33022
▁ال	-6.33497
▁that	-6.33784
▁will	-6.33943
ي	-6.36672
▁ل	-6.38859
▁_	-6.39618
▁The	-6.41442
▁it	-6.42037
?	-6.44689
▁we	-6.46374
ه	-6.47178
▁from	-6.47473
▁عن	-6.47968
▁لا	-6.50317
▁have	-6.5045
▁by	-6.50538
▁ب	-6.51762
▁as	-6.51989
!	-6.52952
/	-6.53064
ها	-6.57797
ية	-6.59083
▁not	-6.60421
؟	-6.62498
▁لل	-6.63645
▁ما	-6.64678
▁I	-6.65224
▁/	-6.653
▁التي	-6.66177
ك	-6.66299
ed	-6.69677
▁at	-6.70921
▁this	-6.72048
▁هو	-6.72878
▁يمكن	-6.72921
ا	-6.7613
▁هذا	-6.78939
ال	-6.80201
▁all	-6.80205
▁We	-6.82425
نا	-6.8386
▁جميع	-6.84652
▁more	-6.84797
ين	-6.85389
▁أي	-6.86623
com	-6.88694
▁كل	-6.89638
d	-6.91597
▁us	-6.95415
ت	-7.01049
▁an	-7.03019
▁هذه	-7.03615
▁""	-7.04947
t	-7.06267
▁A	-7.06339
▁هي	-7.11954
▁any	-7.12695
▁1	-7.12771
▁time	-7.13648
▁بك	-7.15441
▁do	-7.17274
▁about	-7.18814
▁3	-7.19521
▁All	-7.22289
ون	-7.22333
▁ت	-7.22918
▁products	-7.23698
▁has	-7.24217
▁أكثر	-7.24282
▁ذلك	-7.24525
▁بال	-7.24977
▁إذا	-7.26563
▁بعد	-7.26659
▁&	-7.26682
▁one	-7.27073
er	-7.27237
▁©	-7.27681
▁خلال	-7.2873
▁الم	-7.30535
▁2	-7.30999
▁قبل	-7.31132
▁م	-7.33213
!"	-7.34891
▁quality	-7.34903
The	-7.36258
▁ي	-7.36457
A	-7.38205
▁يمكنك	-7.39135
▁You	-7.40696
;	-7.40846
ly	-7.40932
▁,	-7.42376
▁كنت	-7.42937
▁use	-7.43169
S	-7.43245
:"	-7.43379
▁الخاصة	-7.45148
▁5	-7.45159
ًا	-7.45722
▁other	-7.45958
▁10	-7.46054
▁لدينا	-7.46303
▁which	-7.47112
▁نحن	-7.4906
▁information	-7.49289
""	-7.49825
▁than	-7.50601
▁also	-7.52159
▁لك	-7.52185
▁service	-7.5242
▁يتم	-7.5302
اً	-7.53209
y	-7.54074
▁if	-7.54546
▁أفضل	-7.55312
▁كان	-7.55571
▁need	-7.56759
▁الخاص	-7.56762
▁فقط	-7.57247
e	-7.5949
▁العمل	-7.59499
▁.	-7.59501
a	-7.59562
▁best	-7.60003
▁الذي	-7.6029
▁contact	-7.60609
▁غير	-7.60884
▁new	-7.62185
▁سوف	-7.62995
و	-7.63205
▁years	-7.63283
▁>	-7.63622
▁هل	-7.63674
▁their	-7.63823
▁It	-7.64079
C	-7.65886
▁up	-7.66597
هم	-7.6696
al	-7.67063
▁الاتصال	-7.67882
▁يجب	-7.67984
We	-7.68955
▁after	-7.69063
▁يرجى	-7.69322
م	-7.69351
▁4	-7.69368
▁ن	-7.70181
▁was	-7.70619
▁حول	-7.70748
▁make	-7.71337
▁but	-7.71883
▁get	-7.72237
▁المنتجات	-7.7235
▁المعلومات	-7.72764
▁بنا	-7.73448
▁This	-7.74339
▁only	-7.75119
m	-7.75395
▁provide	-7.76184
▁so	-7.76467
▁S	-7.76573
▁2.	-7.76684
▁وقت	-7.76857
▁high	-7.77768
▁أ	-7.79475
في	-7.79844
▁1.	-7.79936
▁يكون	-7.80722
▁2019	-7.80858
▁please	-7.80883
وا	-7.81134
▁لم	-7.81175
▁تم	-7.81282
▁الوقت	-7.81452
▁work	-7.81547
▁استخدام	-7.81773
▁no	-7.82535
▁العالم	-7.82609
▁بين	-7.83679
▁out	-7.83764
▁what	-7.83898
▁الجودة	-7.83957
n	-7.84239
▁مثل	-7.85176
▁help	-7.86056
▁order	-7.86379
▁العملاء	-7.86492
▁most	-7.86688
▁المتحدة	-7.86866
▁بشكل	-7.87824
▁3.	-7.87894
▁ولكن	-7.87973
▁قد	-7.88179
re	-7.88507
▁In	-7.89034
▁6	-7.89043
▁days	-7.89047
▁T	-7.89381
D	-7.89425
▁How	-7.89857
▁حتى	-7.90339
▁company	-7.90483
▁when	-7.90573
▁عالية	-7.91407
▁*	-7.91474
▁تكون	-7.91597
▁its	-7.91643
...	-7.91653
▁free	-7.92134
▁هناك	-7.92429
▁like	-7.9247
T	-7.92518
▁•	-7.92594
▁different	-7.92897
▁مجموعة	-7.92907
▁used	-7.92909
ب	-7.92918
▁following	-7.93764
▁world	-7.9381
▁ا	-7.9401
▁services	-7.94037
▁good	-7.94065
▁may	-7.94664
▁product	-7.94833
▁What	-7.95404
▁available	-7.95783
▁بعض	-7.95873
es	-7.96697
▁7	-7.96738
▁first	-7.96776
▁they	-7.9682
▁should	-7.96868
If	-7.97161
▁2018	-7.97579
r	-7.9811
▁E	-7.98413
▁لديك	-7.98539
▁customers	-7.98699
▁أخرى	-7.99121
▁واحد	-7.9938
▁24	-7.99865
▁over	-7.99886
▁want	-8.00303
▁price	-8.00581
▁how	-8.0079
▁there	-8.00851
▁20	-8.01379
▁30	-8.0224
▁عام	-8.02357
▁very	-8.02547
in	-8.02564
▁الموقع	-8.02607
▁هنا	-8.0269
▁system	-8.03249
▁C	-8.03606
إذا	-8.03681
▁people	-8.03902
▁design	-8.04068
▁who	-8.04322
B	-8.04344
▁To	-8.04423
▁الرئيسية	-8.04793
▁them	-8.04905
▁خدمة	-8.04981
▁...	-8.05085
▁many	-8.05237
or	-8.05386
▁4.	-8.05487
▁واحدة	-8.05595
▁my	-8.0562
▁عبر	-8.05742
▁أيضا	-8.066
▁Our	-8.06687
▁B	-8.07961
ى	-8.08254
▁Please	-8.08344
▁been	-8.08858
▁كما	-8.08985
▁business	-8.09007
▁الحقوق	-8.09206
▁here	-8.09614
th	-8.09921
▁12	-8.10012
▁through	-8.10836
In	-8.10843
▁support	-8.11453
▁كيف	-8.1157
▁before	-8.11601
▁طريق	-8.11744
ل	-8.11921
▁محفوظة	-8.1202
▁=-	-8.12408
▁know	-8.12802
▁15	-8.12873
▁some	-8.13379
o	-8.1482
i	-8.15208
I	-8.15302
▁المزيد	-8.1575
▁ك	-8.16032
▁الآن	-8.16748
▁per	-8.17555
▁within	-8.17747
▁شركة	-8.17766
▁نظام	-8.17854
▁customer	-8.18045
▁For	-8.18925
▁عند	-8.19015
▁year	-8.19175
▁8	-8.19202
▁الحصول	-8.19241
▁الإلكتروني	-8.19608
▁التالية	-8.19685
▁Rights	-8.19773
▁أيام	-8.2029
▁Home	-8.20303
▁production	-8.21959
▁عمل	-8.22127
▁No	-8.22753
▁these	-8.22803
▁experience	-8.22821
G	-8.22876
▁into	-8.22924
▁المنتج	-8.22947
▁day	-8.23392
▁hours	-8.23958
2	-8.24151
▁such	-8.24259
▁Copyright	-8.24275
▁life	-8.2447
▁D	-8.24887
c	-8.25338
▁me	-8.25418
▁take	-8.25451
▁If	-8.25492
▁well	-8.26327
@	-8.26902
▁find	-8.27007
▁تقديم	-8.27279
▁China	-8.27319
b	-8.27332
▁اليوم	-8.27554
▁ونحن	-8.27636
▁الصين	-8.28528
▁offer	-8.28745
▁long	-8.29062
ج	-8.29066
لا	-8.29128
▁المواد	-8.29369
).	-8.29969
▁Reserved	-8.30381
▁يمكننا	-8.30401
كم	-8.30478
▁تصميم	-8.30833
▁سنوات	-8.31186
▁ساعة	-8.31544
F	-8.31904
▁الإنترنت	-8.32215
▁number	-8.32331
▁every	-8.32847
▁العربية	-8.32901
▁2017	-8.32985
س	-8.33116
▁مختلفة	-8.33532
▁وفقا	-8.33693
▁according	-8.34008
▁حيث	-8.34021
▁rights	-8.34323
ـ	-8.34481
▁would	-8.34569
▁الشركة	-8.34638
en	-8.35078
▁جودة	-8.35229
▁two	-8.35427
▁without	-8.35479
▁البريد	-8.35546
▁5.	-8.35588
▁جدا	-8.35685
ن	-8.36092
▁ذات	-8.3622
▁عندما	-8.36241
▁team	-8.36292
▁R	-8.3645
▁working	-8.36484
▁each	-8.36546
▁water	-8.37127
▁العديد	-8.37297
P	-8.37313
▁يوم	-8.37625
▁G	-8.37763
▁P	-8.37779
▁التجارية	-8.38077
▁دون	-8.38277
▁Al	-8.3836
▁"2.	-8.3849
ers	-8.38614
▁شيء	-8.38707
▁100	-8.38803
▁control	-8.39312
▁بها	-8.39474
▁الذين	-8.39564
▁under	-8.40105
▁see	-8.40112
ll	-8.40129
W	-8.40538
▁market	-8.40608
▁عدد	-8.41201
▁جديدة	-8.41408
▁Your	-8.41873
▁way	-8.42052
▁just	-8.42089
▁س	-8.42357
▁easy	-8.42749
▁الطاقة	-8.42901
▁re	-8.42917
ان	-8.43057
▁جيدة	-8.43132
▁machine	-8.43384
▁website	-8.44032
من	-8.44191
▁آخر	-8.44209
▁below	-8.44415
▁And	-8.44448
▁درجة	-8.44522
٪	-8.44633
▁"1.	-8.45209
▁New	-8.4525
▁professional	-8.45263
K	-8.45428
▁لنا	-8.45613
▁Do	-8.45654
؛	-8.45666
▁right	-8.46097
▁كيفية	-8.46126
▁بما	-8.46243
?"	-8.46883
▁now	-8.47022
▁must	-8.47342
3	-8.47423
▁between	-8.47532
▁الخدمات	-8.47729
▁F	-8.47978
▁نقدم	-8.48058
▁etc	-8.48566
▁وم	-8.48673
▁وت	-8.49016
h	-8.49044
▁requirements	-8.49304
▁للحصول	-8.49515
▁مكان	-8.49657
E	-8.49704
V	-8.49908
▁"3.	-8.50078
For	-8.50121
▁data	-8.50563
▁site	-8.50977
▁using	-8.50981
▁his	-8.51099
▁9	-8.51196
▁send	-8.51276
▁needs	-8.51369
▁وي	-8.514
▁Can	-8.5165
▁English	-8.518
able	-8.51808
▁made	-8.51819
p	-8.5184
▁countries	-8.52356
▁L	-8.52877
▁الأخرى	-8.52909
x	-8.52972
▁ف	-8.53008
▁2020	-8.53034
▁own	-8.53092
▁عملية	-8.53193
▁always	-8.53257
▁كانت	-8.53364
k	-8.53399
▁إ	-8.53409
▁لي	-8.53521
1	-8.53643
▁online	-8.54233
▁he	-8.5448
▁ليس	-8.54543
g	-8.54549
..."	-8.54801
▁ان	-8.54869
▁مرة	-8.55403
تك	-8.55446
▁الشحن	-8.55719
4	-8.55775
ّ	-8.56399
▁process	-8.56473
▁during	-8.56511
▁form	-8.56521
▁اختيار	-8.56578
▁where	-8.56827
L	-8.56914
▁النظام	-8.57052
▁international	-8.57187
▁منتجات	-8.57541
▁موقع	-8.5767
▁email	-8.58013
▁M	-8.58051
▁الى	-8.5839
▁K	-8.58782
▁18	-8.58893
▁تريد	-8.58931
▁توفير	-8.58982
▁الصفحة	-8.59022
▁تحتاج	-8.59246
on	-8.59688
▁Contact	-8.59778
▁والم	-8.59912
ما	-8.60016
it	-8.60062
▁cost	-8.60063
▁رقم	-8.60107
M	-8.60383
▁البيانات	-8.60454
▁أجل	-8.60571
▁لكم	-8.60792
an	-8.60866
ف	-8.61493
▁معلومات	-8.61495
▁الإنتاج	-8.61551
▁به	-8.6185
▁account	-8.61995
▁+	-8.62007
▁possible	-8.62055
▁أنحاء	-8.62056
▁الخدمة	-8.62058
▁Q	-8.62081
to	-8.62139
It	-8.62151
▁50	-8.62275
,"	-8.62364
▁development	-8.62855
▁كبيرة	-8.62956
▁Co	-8.63022
▁questions	-8.63136
▁does	-8.6319
H	-8.63227
▁payment	-8.63251
▁Free	-8.63493
▁بالنسبة	-8.63547
▁same	-8.64073
▁reserved	-8.64131
▁place	-8.64358
▁حقوق	-8.64396
▁United	-8.6475
▁الخ	-8.64862
▁دقيقة	-8.64894
▁special	-8.65039
▁سي	-8.651
▁material	-8.65162
▁طلب	-8.65421
▁25	-8.6543
▁الدفع	-8.6567
▁International	-8.65954
▁children	-8.66149
▁factory	-8.66167
://	-8.66247
▁الطلب	-8.66411
أ	-8.66417
▁visit	-8.66632
▁خدمات	-8.66721
▁جديد	-8.66989
▁e	-8.67098
▁better	-8.67295
l	-8.67306
▁فريق	-8.67458
▁الحياة	-8.68071
▁part	-8.68142
▁تحت	-8.68209
▁أنواع	-8.68259
▁أنه	-8.68343
▁حالة	-8.68566
This	-8.68594
▁page	-8.68869
▁size	-8.69281
▁power	-8.69383
▁إن	-8.69472
▁الت	-8.69591
▁H	-8.6961
▁أنت	-8.6963
اء	-8.69756
▁نوع	-8.69796
▁لمدة	-8.70158
▁الله	-8.70159
▁الا	-8.7036
To	-8.70534
ve	-8.70711
▁request	-8.70724
▁including	-8.70727
▁O	-8.70793
▁السوق	-8.71196
▁"4.	-8.71251
▁home	-8.71454
▁إدارة	-8.71482
▁delivery	-8.71483
▁عرض	-8.71491
▁back	-8.71958
▁full	-8.72326
ation	-8.72344
▁الوصول	-8.72847
▁change	-8.72958
▁العام	-8.73176
▁أدناه	-8.73291
▁important	-8.73292
▁details	-8.73485
▁التسليم	-8.73655
؟"	-8.73806
▁الولايات	-8.73987
▁much	-8.74166
▁choose	-8.74424
N	-8.74742
ته	-8.74805
ق	-8.75123
▁ensure	-8.75183
u	-8.7524
le	-8.75366
▁الأعمال	-8.7557
▁·	-8.7558
د	-8.75664
_	-8.75678
▁2016	-8.75835
▁could	-8.75836
▁6.	-8.76047
▁project	-8.76058
▁[	-8.76177
▁Be	-8.76423
▁color	-8.7653
▁give	-8.76619
▁عليك	-8.76781
co	-8.76826
▁شخص	-8.7684
▁go	-8.77353
▁الأطفال	-8.77668
▁parts	-8.7767
▁تسجيل	-8.77746
▁المهنية	-8.77754
ع	-8.78152
▁سيتم	-8.78405
ar	-8.78826
▁range	-8.78872
▁الشركات	-8.79107
نحن	-8.79284
▁car	-8.79339
▁نطاق	-8.79616
▁three	-8.79632
▁سن	-8.79635
▁N	-8.79749
Our	-8.79848
▁..."	-8.7996
▁technology	-8.79996
▁required	-8.80061
ص	-8.80113
▁باستخدام	-8.80538
▁Re	-8.80676
ز	-8.80713
▁then	-8.80819
▁إرسال	-8.80872
R	-8.81335
]	-8.81429
▁shall	-8.81504
▁الناس	-8.81691
▁even	-8.81722
▁الدولية	-8.81807
6	-8.82048
▁country	-8.82105
▁سنة	-8.82169
▁حسب	-8.82351
▁great	-8.82587
▁وسوف	-8.82655
Y	-8.82736
▁الكثير	-8.82748
▁البحث	-8.82791
يات	-8.82821
▁around	-8.82844
ic	-8.82991
▁application	-8.83219
at	-8.83238
▁meet	-8.83414
▁أقل	-8.83501
▁الأ	-8.83608
▁V	-8.83644
▁فإن	-8.83776
▁Hosting	-8.83795
▁منطقة	-8.83805
ur	-8.83925
▁ثم	-8.83945
O	-8.84197
▁منتجاتنا	-8.84256
▁الأكثر	-8.84432
mm	-8.84536
▁الجديدة	-8.84614
f	-8.84724
▁equipment	-8.84868
▁health	-8.85013
▁area	-8.8552
st	-8.8555
▁عليها	-8.85941
▁small	-8.85993
7	-8.86254
تها	-8.86437
▁؛	-8.8646
▁receive	-8.86505
▁مختلف	-8.86514
▁There	-8.86679
▁www	-8.86722
▁منذ	-8.86948
▁لن	-8.86969
▁أنا	-8.87028
▁الفيديو	-8.87138
;"	-8.87163
▁برنامج	-8.8722
▁industry	-8.87407
and	-8.87863
▁مركز	-8.87919
▁والتي	-8.88025
ment	-8.88067
▁لها	-8.88108
▁case	-8.8818
ity	-8.88341
▁were	-8.88515
▁group	-8.88866
▁وضع	-8.89075
▁لكل	-8.89122
▁ضمان	-8.89147
▁دعم	-8.89151
▁sales	-8.89251
▁months	-8.89255
▁إعادة	-8.89532
▁access	-8.89594
مع	-8.89698
)."	-8.89732
▁غضون	-8.89884
▁2015	-8.89915
▁#	-8.89942
ر	-8.89961
▁حجم	-8.9022
▁مجال	-8.90228
▁جيد	-8.90324
▁start	-8.90326
▁خاصة	-8.90426
▁أكبر	-8.90472
▁لماذا	-8.90495
▁14	-8.9061
▁ست	-8.9061
▁أعلى	-8.90746
▁كبير	-8.9076
▁وأ	-8.90835
▁لقد	-8.90965
يا	-8.91243
▁both	-8.91422
▁المملكة	-8.91613
▁11	-8.91648
5	-8.91695
تي	-8.91766
il	-8.91864
▁minutes	-8.91995
▁set	-8.92371
▁technical	-8.9265
▁U	-8.92878
▁clients	-8.92924
▁More	-8.92986
▁those	-8.92986
▁because	-8.93105
▁environment	-8.93122
▁feel	-8.9316
▁السيارات	-8.93264
▁open	-8.93265
▁various	-8.93275
▁'	-8.93344
▁Policy	-8.93638
ني	-8.93732
▁مصنع	-8.93742
▁19	-8.93885
z	-8.94023
v	-8.94074
▁بواسطة	-8.94093
▁High	-8.94288
▁المالية	-8.94338
ia	-8.94683
▁look	-8.94737
ion	-8.94844
▁performance	-8.95
▁food	-8.95038
▁W	-8.95122
▁16	-8.95133
▁States	-8.95175
▁التالي	-8.9557
▁materials	-8.95578
▁results	-8.95637
▁مستوى	-8.95834
▁يمكنني	-8.95889
▁With	-8.95923
▁ترغب	-8.96072
▁Saudi	-8.96093
▁level	-8.96096
▁keep	-8.96333
▁protection	-8.96562
▁based	-8.96614
▁future	-8.96686
▁test	-8.96714
org	-8.96787
▁معنا	-8.96901
▁person	-8.97
▁الشخصية	-8.97117
▁لذلك	-8.9713
▁العامة	-8.97213
▁الاستخدام	-8.97339
▁management	-8.97339
▁conditions	-8.97465
▁low	-8.97531
▁companies	-8.97588
▁شراء	-8.97698
▁أيضًا	-8.97813
we	-8.97835
▁"5.	-8.97894
▁مباشرة	-8.97928
You	-8.97965
▁نفس	-8.98214
▁type	-8.98297
▁main	-8.98373
▁التواصل	-8.98607
▁أحد	-8.9862
▁سعر	-8.98661
▁check	-8.98711
▁عليه	-8.98797
▁address	-8.988
▁local	-8.98824
▁personal	-8.98899
▁Quality	-8.99027
▁40	-8.99188
▁OEM	-8.99206
▁ولا	-8.99216
▁الإنجليزية	-8.99241
▁family	-8.99408
▁standard	-8.99414
▁العميل	-8.9952
خ	-8.99669
▁Us	-8.99752
▁للغاية	-8.99752
▁الأول	-8.99804
▁He	-8.99869
▁light	-8.99919
▁لديها	-9.00007
▁operation	-9.00153
▁un	-9.00274
▁name	-9.00393
X	-9.00425
8	-9.00492
the	-9.00777
▁بناء	-9.00931
el	-9.00994
▁Privacy	-9.0108
▁بي	-9.01141
▁الجهاز	-9.01173
▁الأولى	-9.01418
تنا	-9.01469
▁real	-9.01527
▁her	-9.01673
▁حماية	-9.0168
▁video	-9.01688
▁offers	-9.01715
▁القيام	-9.01717
▁يلي	-9.01757
▁تطوير	-9.0178
▁last	-9.01836
us	-9.0191
▁provided	-9.01916
▁"*	-9.01926
▁being	-9.02021
▁اتصل	-9.02052
▁الأسعار	-9.02144
▁الدعم	-9.02384
▁program	-9.02634
▁تاريخ	-9.02805
▁Services	-9.02889
▁sure	-9.02993
▁ويمكن	-9.03052
▁حساب	-9.0313
ry	-9.03182
▁period	-9.03253
▁سياسة	-9.03446
▁don	-9.03494
▁الصور	-9.03622
▁دائما	-9.03738
▁رسالة	-9.03775
▁التحكم	-9.0387
▁تعمل	-9.03874
▁مما	-9.03963
▁de	-9.03993
▁Arab	-9.04092
▁كم	-9.04169
▁إنتاج	-9.04211
▁اختبار	-9.04229
▁عدم	-9.04254
▁end	-9.04398
ate	-9.04426
▁زيارة	-9.04518
▁Service	-9.04764
▁الرجاء	-9.04786
▁تستخدم	-9.04854
▁طويلة	-9.04875
▁التصميم	-9.05016
▁نقل	-9.0518
▁وقد	-9.05209
يمكن	-9.05289
▁المختلفة	-9.05472
▁وا	-9.05492
▁0	-9.05525
▁message	-9.05675
▁13	-9.05704
▁العالمية	-9.05774
▁المياه	-9.05896
▁pay	-9.05925
▁goods	-9.06035
▁ماذا	-9.06359
▁الانترنت	-9.06551
▁air	-9.06656
▁الخبرة	-9.06666
▁social	-9.06725
▁World	-9.06786
▁أثناء	-9.06844
▁قائمة	-9.06893
up	-9.06932
▁large	-9.06962
▁فى	-9.07438
▁٪	-9.07623
▁الحرارة	-9.07704
▁safety	-9.07768
▁العثور	-9.08044
age	-9.08072
▁training	-9.08078
▁energy	-9.08096
▁تحديد	-9.08125
▁call	-9.08127
▁التفاصيل	-9.08205
▁latest	-9.0821
▁line	-9.08359
▁Good	-9.08383
▁تغيير	-9.08592
▁تطبيق	-9.08599
▁ج	-9.0883
de	-9.08877
net	-9.08887
▁Get	-9.08969
▁security	-9.09057
▁Web	-9.09127
9	-9.09144
▁today	-9.09191
▁Europe	-9.09229
▁simple	-9.09347
▁العرض	-9.09485
▁care	-9.09551
▁problem	-9.09604
▁Products	-9.09736
▁supply	-9.09837
▁body	-9.10143
▁treatment	-9.10166
▁stay	-9.10195
▁list	-9.10364
▁One	-9.10483
▁60	-9.10627
▁money	-9.10846
ive	-9.10977
▁متطلبات	-9.11399
▁الخصوصية	-9.11785
▁J	-9.1184
▁temperature	-9.11946
▁times	-9.11971
▁الهاتف	-9.11983
▁قطع	-9.12037
▁داخل	-9.12259
▁complete	-9.12364
▁down	-9.1238
▁welcome	-9.12381
▁اللون	-9.12467
▁Why	-9.1251
▁come	-9.1269
▁necessary	-9.12704
▁وفي	-9.12823
▁وغيرها	-9.13022
▁individual	-9.13036
▁تحميل	-9.13138
▁less	-9.1371
▁السعر	-9.13881
▁قم	-9.13962
▁So	-9.14034
>	-9.14128
est	-9.14203
▁able	-9.1447
▁شبكة	-9.14657
▁لجميع	-9.14676
▁الأمريكية	-9.14684
w	-9.14745
▁اللغة	-9.15064
▁few	-9.15142
▁الحد	-9.15156
▁while	-9.15175
▁مجانية	-9.1525
▁fast	-9.15375
▁above	-9.15376
▁Group	-9.15389
▁سيكون	-9.15407
ro	-9.15459
▁التشغيل	-9.15576
▁week	-9.15615
▁الدولي	-9.15628
▁له	-9.1565
▁2014	-9.15688
▁Company	-9.15719
▁Is	-9.15759
▁city	-9.15905
▁against	-9.16052
▁تقدم	-9.16067
ir	-9.16366
▁About	-9.16653
▁آلة	-9.16654
▁حل	-9.16818
▁date	-9.16878
ً	-9.16955
▁الإ	-9.17123
ne	-9.17134
▁looking	-9.17199
▁create	-9.17203
▁السعودية	-9.17204
▁non	-9.1736
ير	-9.17501
as	-9.17601
Q	-9.1766
▁value	-9.1779
me	-9.1782
▁ساعات	-9.17883
▁love	-9.17884
▁projects	-9.17931
▁أول	-9.18158
ض	-9.18249
▁human	-9.1827
▁تصل	-9.18301
▁100%	-9.18447
▁وهو	-9.18572
َ	-9.18763
▁i	-9.18768
▁"•	-9.18815
▁7.	-9.18856
▁card	-9.1887
am	-9.18934
▁الأمر	-9.19052
J	-9.19092
▁التعبئة	-9.19117
▁types	-9.19202
▁read	-9.19217
▁improve	-9.19244
▁room	-9.19252
▁مدينة	-9.19299
▁فترة	-9.19434
▁المصنع	-9.1946
ُ	-9.19472
▁safe	-9.19492
▁shipping	-9.1952
▁مصر	-9.19617
▁Online	-9.19633
▁soon	-9.19634
▁ISO	-9.1972
▁month	-9.19781
▁البيع	-9.19845
▁طريقة	-9.19846
▁ليست	-9.19885
▁حوالي	-9.19948
▁research	-9.20129
▁sample	-9.2016
+	-9.20168
▁solutions	-9.20236
▁East	-9.20251
um	-9.20352
ness	-9.20623
▁جهاز	-9.20755
▁أحدث	-9.20818
▁تحقيق	-9.2097
▁problems	-9.21218
▁t	-9.21289
▁أنها	-9.21333
▁ومن	-9.21353
10	-9.21396
▁activities	-9.2155
▁إنشاء	-9.21791
▁اسم	-9.21854
▁النقل	-9.21901
▁am	-9.21962
▁X	-9.21978
▁الهواء	-9.22161
▁phone	-9.22213
▁let	-9.22237
▁public	-9.22242
▁women	-9.22459
▁بكم	-9.22663
▁him	-9.2285
▁لت	-9.23001
▁next	-9.23029
▁Egypt	-9.23061
▁question	-9.23102
▁الإمارات	-9.23293
*	-9.23313
▁Ltd	-9.23486
▁أسئلة	-9.23675
▁include	-9.23822
تين	-9.23822
▁كلمة	-9.23875
na	-9.23914
الم	-9.23939
▁age	-9.23955
▁دفع	-9.23962
▁rate	-9.24047
▁البرنامج	-9.24079
▁خاص	-9.2416
ra	-9.24179
▁field	-9.24212
▁current	-9.24246
▁العملية	-9.24251
▁had	-9.24297
▁عملائنا	-9.24359
▁وما	-9.24397
▁prices	-9.24398
▁By	-9.24537
ary	-9.24654
▁$	-9.24661
▁buy	-9.24755
▁Use	-9.24819
▁still	-9.24895
▁نقوم	-9.24934
▁European	-9.24991
▁التكنولوجيا	-9.25074
▁trade	-9.25226
▁المادة	-9.25226
▁Terms	-9.25354
▁مربع	-9.25584
▁financial	-9.25622
▁content	-9.25669
تم	-9.25832
▁As	-9.25898
ta	-9.25982
▁الدول	-9.26036
no	-9.26081
▁المشروع	-9.26091
man	-9.26096
على	-9.26105
▁علي	-9.2615
▁؟	-9.26204
▁نوعية	-9.26227
"""	-9.26272
▁US	-9.26301
▁course	-9.26315
▁وذلك	-9.26481
▁للم	-9.26563
▁p	-9.26609
ش	-9.26671
is	-9.26823
▁Center	-9.26926
▁لتوفير	-9.26964
▁terms	-9.26986
▁c	-9.27332
يه	-9.27395
ent	-9.27445
▁directly	-9.2752
▁Bank	-9.27571
▁المنطقة	-9.27901
▁المتاحة	-9.28012
▁suitable	-9.28056
▁medical	-9.28248
▁المنزل	-9.28388
▁يوجد	-9.28405
▁weight	-9.28412
▁top	-9.2849
▁Development	-9.28675
▁وهي	-9.2878
▁several	-9.28782
▁designed	-9.28833
▁since	-9.28986
▁least	-9.2899
▁17	-9.29012
▁المحلية	-9.29118
▁manufacturer	-9.29142
li	-9.29282
▁Time	-9.29335
▁النشر	-9.29336
▁نهاية	-9.29365
▁off	-9.29391
▁policy	-9.29438
ول	-9.29488
▁But	-9.29524
▁game	-9.2964
As	-9.29826
▁بحاجة	-9.29978
▁رسوم	-9.30076
▁تشغيل	-9.30108
▁An	-9.30116
▁deposit	-9.30125
Z	-9.30144
▁الجديد	-9.30187
▁Best	-9.3056
▁Here	-9.30606
▁found	-9.30623
▁كاملة	-9.30655
اس	-9.30681
▁كامل	-9.30686
▁خط	-9.30837
▁وجود	-9.30868
▁solution	-9.30872
▁areas	-9.30936
▁الساعة	-9.30992
▁دولة	-9.31006
▁think	-9.31064
▁enjoy	-9.31197
ح	-9.31204
▁ممكن	-9.31207
▁تحسين	-9.31261
▁شهر	-9.31283
▁لضمان	-9.31317
▁speed	-9.31323
▁Are	-9.31335
▁المناسب	-9.31466
▁trading	-9.31503
▁توفر	-9.31523
00	-9.31526
▁learn	-9.31592
▁واسعة	-9.31779
▁protect	-9.31785
U	-9.31859
ذ	-9.32041
),	-9.32094
▁Hotel	-9.3248
▁Arabia	-9.32581
▁Support	-9.32588
&	-9.32628
▁maintenance	-9.3266
▁become	-9.3289
▁said	-9.32931
www	-9.32954
▁language	-9.32971
With	-9.33097
▁standards	-9.33212
▁يعمل	-9.33246
ine	-9.33303
▁Of	-9.33314
▁المرور	-9.33373
▁"6.	-9.33448
▁perfect	-9.33504
▁نموذج	-9.33609
▁Pro	-9.33678
▁التجارة	-9.33692
▁ع	-9.33705
▁التعاون	-9.33806
▁global	-9.33829
▁نعم	-9.33868
▁معرفة	-9.33868
▁جعل	-9.3395
▁متر	-9.34016
▁المال	-9.34098
▁quantity	-9.34118
et	-9.34216
▁النموذج	-9.34256
ul	-9.34325
▁accurate	-9.34348
▁الصحية	-9.34389
▁https	-9.34491
▁الع	-9.34537
▁side	-9.34619
▁things	-9.3462
▁لكن	-9.34661
▁old	-9.34693
▁apply	-9.34721
ty	-9.34753
▁دولار	-9.34788
▁ضد	-9.3494
▁share	-9.34943
▁requirement	-9.35082
▁عادة	-9.35391
ام	-9.35428
be	-9.35464
▁comprehensive	-9.35653
▁2013	-9.35818
▁التطبيق	-9.35936
▁click	-9.35992
▁De	-9.35993
▁السفر	-9.36074
▁بسهولة	-9.36185
▁Business	-9.36284
▁عنوان	-9.36347
▁ش	-9.36404
▁الن	-9.36452
▁oil	-9.36513
▁الأوروبي	-9.36563
▁حال	-9.366
▁try	-9.36649
▁معظم	-9.36765
▁تجربة	-9.36914
▁University	-9.37088
▁تكلفة	-9.37101
▁THE	-9.37119
▁او	-9.37212
ود	-9.37239
▁النتائج	-9.37318
▁They	-9.3739
▁مليون	-9.37482
▁صفحة	-9.37517
▁live	-9.37659
se	-9.37674
▁القدرة	-9.37785
▁إجراء	-9.37793
▁تعرف	-9.37958
▁further	-9.37965
▁installation	-9.3802
▁put	-9.38071
▁whole	-9.3813
▁LED	-9.38227
ch	-9.38303
▁Dubai	-9.38334
▁together	-9.38382
▁زيادة	-9.38424
▁night	-9.38558
▁When	-9.38631
▁specific	-9.38714
ار	-9.38747
▁child	-9.38756
▁بشأن	-9.3876
▁investment	-9.38819
▁(1)	-9.38839
All	-9.38851
No	-9.38869
▁الرئيسي	-9.38968
▁making	-9.39008
▁الأقل	-9.39016
▁مجانا	-9.39111
▁million	-9.39163
▁ثلاثة	-9.39249
▁الوزن	-9.39276
▁الضمان	-9.39291
▁box	-9.39334
▁استخدامها	-9.39387
كل	-9.39396
▁again	-9.3947
▁Domain	-9.39603
20	-9.39606
▁brand	-9.39639
▁Google	-9.39645
▁21	-9.39694
هذا	-9.39712
رة	-9.39749
▁lot	-9.39824
▁الاجتماعية	-9.39837
هل	-9.39894
▁via	-9.39996
▁kinds	-9.40089
▁شهادة	-9.40161
▁مزيد	-9.40295
▁فيها	-9.40333
▁الأساسية	-9.40454
▁beautiful	-9.40503
▁strong	-9.40521
▁200	-9.40533
▁hotel	-9.40571
▁guarantee	-9.40656
▁المعدات	-9.4066
▁بدون	-9.40707
▁hand	-9.40768
▁Z	-9.40802
▁friends	-9.41068
▁الطبية	-9.4113
▁موقعنا	-9.41159
▁wide	-9.41315
▁competitive	-9.41324
▁مناسبة	-9.41463
▁Car	-9.41542
sa	-9.41577
un	-9.41597
▁مجلس	-9.4162
▁تفاصيل	-9.41644
te	-9.41692
▁means	-9.41723
▁شروط	-9.41741
لل	-9.41781
▁حاجة	-9.41809
▁school	-9.41814
ِ	-9.4189
▁users	-9.41927
ting	-9.41946
▁save	-9.41952
▁التسجيل	-9.41956
▁why	-9.41967
ma	-9.41989
▁بسبب	-9.42039
▁Article	-9.42192
▁شكرا	-9.42197
▁staff	-9.42203
▁المدينة	-9.4224
▁show	-9.42283
▁others	-9.42296
▁الأسبوع	-9.42315
▁options	-9.42443
▁إضافة	-9.42458
▁وب	-9.42466
▁بسرعة	-9.42532
▁another	-9.42807
▁add	-9.42877
▁City	-9.42899
▁Other	-9.42966
▁البيئة	-9.42977
ث	-9.4306
▁Health	-9.43089
".""	-9.43138
▁قصارى	-9.43151
▁travel	-9.43161
▁الأوسط	-9.43192
▁فيما	-9.43211
▁UAE	-9.4327
غ	-9.4329
▁amount	-9.43294
▁الإلكترونية	-9.43307
▁فوق	-9.43366
يك	-9.43417
ad	-9.43446
▁construction	-9.43526
▁حد	-9.43578
▁يصل	-9.43593
ri	-9.43603
▁غرفة	-9.43627
j	-9.43631
▁مشروع	-9.43632
▁أشهر	-9.43916
▁students	-9.43932
▁Arabic	-9.43957
▁دليل	-9.44016
▁device	-9.44021
▁تتردد	-9.44197
▁سهلة	-9.44297
▁samples	-9.44301
▁الشروط	-9.44311
▁plan	-9.44311
▁الماء	-9.44486
▁info	-9.44543
▁National	-9.44609
▁space	-9.44662
اد	-9.4473
▁مراقبة	-9.44801
▁العالمي	-9.44808
▁Next	-9.44833
▁دبي	-9.44912
▁جزء	-9.44932
▁she	-9.44994
▁النظر	-9.45024
▁Middle	-9.45051
▁cooperation	-9.45158
▁الاتحاد	-9.45278
lo	-9.45309
▁الدخول	-9.45339
▁national	-9.45464
▁وظيفة	-9.45517
rs	-9.45568
▁reach	-9.45788
▁building	-9.45797
▁بطاقة	-9.45823
▁تلك	-9.45836
▁متعددة	-9.45944
▁members	-9.4609
▁لديه	-9.46114
▁صغيرة	-9.46142
▁عينة	-9.46192
ست	-9.46206
▁واسع	-9.46227
▁ينبغي	-9.46288
▁كافة	-9.46312
▁kind	-9.46327
▁until	-9.4638
▁مساعدة	-9.46409
ist	-9.4648
▁capacity	-9.46484
▁لهذا	-9.46603
▁شكل	-9.4661
▁excellent	-9.46695
▁follow	-9.46701
▁"-	-9.4673
▁با	-9.46902
▁جهدنا	-9.46933
▁choice	-9.46934
يف	-9.46986
▁easily	-9.46997
▁الصغيرة	-9.47011
ING	-9.47045
▁مرات	-9.4705
▁المساعدة	-9.47081
ter	-9.47185
▁produce	-9.47215
▁قيمة	-9.47225
▁efficiency	-9.47275
▁effective	-9.47278
▁صناعة	-9.47328
la	-9.4741
▁items	-9.47463
▁الطريق	-9.47583
go	-9.4761
▁ون	-9.47614
▁Technology	-9.47659
▁review	-9.47694
▁America	-9.4774
▁tell	-9.47781
▁package	-9.47816
▁وهذا	-9.47849
▁التدريب	-9.47869
▁Africa	-9.47911
▁features	-9.47974
▁المجتمع	-9.48054
▁يوما	-9.48104
▁أوروبا	-9.48184
▁unique	-9.48246
▁Website	-9.48334
▁http	-9.48341
▁دقائق	-9.48358
▁قسم	-9.48433
بعد	-9.48447
▁achieve	-9.48463
▁really	-9.48521
▁applications	-9.48559
▁already	-9.48578
▁أساس	-9.48596
▁big	-9.48606
ant	-9.48648
▁search	-9.48727
id	-9.4888
▁500	-9.48969
▁touch	-9.48981
▁understand	-9.49014
▁Information	-9.49017
▁everything	-9.49041
im	-9.49055
▁Allah	-9.4906
▁systems	-9.49125
▁did	-9.49183
▁خارج	-9.49222
▁increase	-9.49345
▁مشكلة	-9.49355
▁منتج	-9.49386
▁office	-9.49441
▁My	-9.49449
▁2012	-9.49451
▁مكتب	-9.49487
▁key	-9.49541
ئ	-9.49543
وي	-9.49646
ies	-9.49671
▁Internet	-9.4974
▁السهل	-9.49751
▁بيع	-9.49807
▁view	-9.49836
50	-9.4985
▁short	-9.49889
▁إضافية	-9.49934
▁CO	-9.49947
▁happy	-9.501
▁success	-9.50133
▁Y	-9.50161
▁Delivery	-9.50218
إن	-9.50283
▁إلخ	-9.50289
▁دي	-9.50468
▁الصحة	-9.50511
▁الصناعية	-9.50523
▁provides	-9.50555
▁link	-9.50613
▁الس	-9.50614
▁accept	-9.50686
▁Design	-9.50688
▁ready	-9.50727
▁law	-9.50733
▁never	-9.50742
▁received	-9.50799
▁تقوم	-9.50847
▁article	-9.51012
لة	-9.51027
▁فتح	-9.51053
▁حرارة	-9.51128
▁little	-9.5117
▁play	-9.51183
▁answer	-9.51194
▁stock	-9.51206
▁software	-9.51214
▁(2)	-9.51254
▁warranty	-9.51345
▁man	-9.51378
▁البناء	-9.51425
▁الكمبيوتر	-9.51484
▁بأن	-9.51486
▁download	-9.51648
▁Or	-9.51803
▁tools	-9.5184
▁addition	-9.51919
Re	-9.51922
▁إليها	-9.5194
▁Ministry	-9.52009
ی	-9.52054
▁بيانات	-9.52074
▁ح	-9.52114
▁لو	-9.52114
▁الضغط	-9.5212
▁22	-9.52151
▁makes	-9.52158
▁user	-9.5216
▁حياة	-9.52166
▁steel	-9.52318
▁purchase	-9.52417
▁Any	-9.52425
▁subject	-9.52427
▁المستقبل	-9.52439
▁m	-9.52444
ie	-9.52498
▁away	-9.52503
▁extra	-9.52563
▁private	-9.52593
▁است	-9.52623
▁post	-9.52887
▁Turkey	-9.5289
▁بن	-9.52944
▁upon	-9.53026
▁وسائل	-9.53231
▁لون	-9.5326
ce	-9.53319
▁متنوعة	-9.53389
▁On	-9.53399
▁التعليم	-9.53486
▁something	-9.53522
▁المبيعات	-9.53677
يب	-9.53728
▁Meme	-9.53807
ol	-9.53862
▁لدى	-9.53887
▁المطلوبة	-9.53908
▁yourself	-9.53995
▁legal	-9.54054
▁say	-9.54057
▁colors	-9.54079
▁د	-9.54121
▁مواد	-9.54126
▁natural	-9.54215
يم	-9.54273
▁تنفيذ	-9.54308
if	-9.54336
▁الطعام	-9.54436
لي	-9.54448
▁أمر	-9.54456
▁بالإضافة	-9.54461
ized	-9.54539
▁media	-9.54577
▁تحديث	-9.54655
▁News	-9.54698
When	-9.54708
▁لأن	-9.54773
▁الإنسان	-9.5481
▁result	-9.54817
▁co	-9.54848
▁نبذل	-9.54862
▁الصورة	-9.54965
▁أم	-9.54994
▁reliable	-9.54995
▁structure	-9.55157
mo	-9.55275
less	-9.55475
▁too	-9.55512
▁enter	-9.5568
▁secure	-9.55696
▁يجعل	-9.5573
▁return	-9.55742
▁believe	-9.55778
▁عدة	-9.55813
يل	-9.55857
▁تماما	-9.55879
▁model	-9.55892
▁للعملاء	-9.55948
▁job	-9.56033
▁وأكثر	-9.56081
▁function	-9.56104
▁interested	-9.56138
دي	-9.56167
mail	-9.56243
book	-9.56247
▁فيه	-9.56322
▁news	-9.5633
▁network	-9.56347
▁أسعار	-9.56357
ru	-9.56376
▁الف	-9.56383
فر	-9.56518
▁variety	-9.56563
▁South	-9.56566
▁الشرق	-9.56605
وس	-9.5674
▁سلسلة	-9.56741
▁طلبك	-9.56813
▁البحر	-9.57075
▁point	-9.57137
▁pressure	-9.57207
▁90	-9.57297
▁Read	-9.57319
▁community	-9.57361
▁العلاج	-9.57373
▁Find	-9.57476
▁الشراء	-9.57506
▁forward	-9.57599
▁Asia	-9.57635
ٍ	-9.57703
▁يتعلق	-9.57803
▁العالية	-9.57862
▁report	-9.57899
اب	-9.5791
▁المستخدم	-9.57929
ور	-9.57965
▁documents	-9.58004
▁بالفعل	-9.5805
▁آمنة	-9.58093
▁?	-9.58126
▁الثاني	-9.58168
▁تجارية	-9.58281
30	-9.58357
▁economic	-9.58382
▁customized	-9.58387
▁ask	-9.58439
▁develop	-9.5847
نعم	-9.58557
▁After	-9.58671
▁الأوروبية	-9.58742
▁انها	-9.58985
▁methods	-9.58988
▁بسيطة	-9.59
از	-9.59006
▁صور	-9.5907
▁related	-9.59073
▁45	-9.59148
▁الاستثمار	-9.59155
▁once	-9.59155
مر	-9.59166
▁لمزيد	-9.59176
▁daily	-9.5928
▁avoid	-9.59363
▁Management	-9.59397
▁حلول	-9.5942
▁Council	-9.59467
▁Now	-9.59535
▁التسوق	-9.5955
▁يعني	-9.59564
▁advanced	-9.59568
▁الداخلية	-9.59671
▁providing	-9.59701
▁games	-9.59737
▁Chinese	-9.59739
▁example	-9.59742
ian	-9.59751
▁clean	-9.59791
▁sent	-9.59806
▁تنافسية	-9.5984
▁Sa	-9.59973
بة	-9.60087
▁interest	-9.60108
ha	-9.60109
▁تصنيع	-9.60135
▁سبيل	-9.6018
▁إلا	-9.60253
اج	-9.60435
▁Windows	-9.60556
▁الش	-9.60658
▁لعبة	-9.60786
▁الويب	-9.60789
▁ق	-9.60814
حق	-9.60953
▁مجاني	-9.60997
▁knowledge	-9.61037
one	-9.61057
▁Street	-9.61094
▁second	-9.61166
▁From	-9.61428
▁المشاريع	-9.6152
▁risk	-9.61535
▁قراءة	-9.61577
▁8.	-9.61607
▁منها	-9.61784
Yes	-9.61792
▁works	-9.61812
▁تأثير	-9.61831
▁These	-9.61917
▁hope	-9.61985
▁System	-9.62073
▁third	-9.62167
وب	-9.6217
▁events	-9.62176
▁transfer	-9.6219
▁Union	-9.6228
▁anything	-9.62506
▁صورة	-9.62541
▁أجزاء	-9.6259
▁البضائع	-9.62602
▁charge	-9.62644
▁Click	-9.62671
▁70	-9.62774
▁La	-9.6284
▁لأي	-9.62986
▁property	-9.63022
▁الب	-9.63023
0	-9.63048
▁Welcome	-9.63087
▁text	-9.63099
▁سواء	-9.63142
▁متاح	-9.63183
▁located	-9.6319
▁May	-9.63252
▁popular	-9.63266
▁total	-9.6331
▁Pre	-9.63412
ton	-9.63448
▁four	-9.63451
▁ضمن	-9.63495
▁فندق	-9.63498
▁جانب	-9.63538
▁الكهربائية	-9.63571
وت	-9.63601
▁going	-9.63651
▁نحو	-9.6375
▁CE	-9.63804
▁ways	-9.63871
▁المصنعة	-9.63905
▁التحقق	-9.64014
▁الحفاظ	-9.6404
ance	-9.64156
اح	-9.64168
▁pre	-9.64172
▁event	-9.64193
▁reduce	-9.64267
▁Make	-9.64458
days	-9.64497
▁تعيين	-9.64503
▁book	-9.64669
▁Download	-9.64676
▁models	-9.64677
▁French	-9.64807
▁الأعضاء	-9.6483
▁مدى	-9.64919
▁الرد	-9.6492
▁modern	-9.64946
▁قطر	-9.65002
سي	-9.65036
▁الوطنية	-9.65085
▁كمية	-9.65105
▁web	-9.65143
▁فرد	-9.65158
▁Site	-9.65179
▁خبرة	-9.65227
▁ملاحظة	-9.65304
▁المثال	-9.65379
▁ثلاث	-9.65381
▁التكلفة	-9.65411
▁credit	-9.6544
▁مرحبا	-9.65441
▁screen	-9.65449
▁!	-9.65477
ful	-9.6551
▁قوية	-9.65526
▁ملف	-9.65573
▁hard	-9.65595
▁الأفضل	-9.65612
▁تلقي	-9.65636
▁يستخدم	-9.65668
▁Not	-9.65717
نت	-9.65725
▁شركات	-9.6574
▁العلامة	-9.65752
▁At	-9.65818
ence	-9.65856
قد	-9.65895
▁Member	-9.66006
▁أقرب	-9.66053
18	-9.66062
▁أعلاه	-9.66138
▁client	-9.66166
ling	-9.66166
▁اختر	-9.6622
▁فإنه	-9.66231
▁البلدان	-9.66252
▁سؤال	-9.66304
▁Professional	-9.66521
ah	-9.66538
▁الجسم	-9.66563
وف	-9.66599
▁f	-9.66654
أو	-9.66664
▁common	-9.66681
▁Thank	-9.66703
ط	-9.66746
▁sea	-9.66785
ak	-9.66813
▁government	-9.66814
▁الفندق	-9.66827
▁due	-9.6685
▁الألوان	-9.6689
▁Russian	-9.66897
▁وزارة	-9.66926
▁balance	-9.66972
▁resources	-9.66995
▁Day	-9.66996
▁السريع	-9.67046
▁وليس	-9.67084
▁الق	-9.67241
▁machines	-9.67261
▁sector	-9.67288
ated	-9.67326
da	-9.67433
▁general	-9.67437
▁done	-9.6745
▁السلامة	-9.67517
▁الآخرين	-9.67551
%	-9.67571
▁الأسئلة	-9.67578
▁يوفر	-9.67587
▁لتقديم	-9.67686
▁اتصال	-9.67694
And	-9.67753
Do	-9.67778
▁additional	-9.67787
▁تبحث	-9.67818
▁التعامل	-9.67837
▁inquiry	-9.67852
▁معدات	-9.67946
لم	-9.67979
▁عاما	-9.67991
▁First	-9.68004
▁export	-9.68019
▁مواقع	-9.6803
▁الأرض	-9.68063
▁hair	-9.68104
11	-9.68139
▁البنك	-9.68147
▁الح	-9.68172
▁steps	-9.68274
▁step	-9.68295
▁أنك	-9.68311
▁Germany	-9.68342
▁لتلبية	-9.68373
▁sale	-9.68374
▁تحويل	-9.68411
Please	-9.68454
▁الوطني	-9.68474
▁often	-9.685
ka	-9.6856
do	-9.68608
▁accordance	-9.68618
▁yet	-9.68619
▁supplier	-9.68696
▁تركيا	-9.68735
▁نتائج	-9.68814
▁center	-9.68898
▁المتعلقة	-9.68916
▁among	-9.68931
25	-9.68932
▁ص	-9.68962
▁house	-9.69066
▁table	-9.69073
▁لمتطلبات	-9.69098
▁Kingdom	-9.69132
▁ممتازة	-9.69192
▁reply	-9.69195
▁والخدمات	-9.69249
▁education	-9.69307
▁face	-9.69445
▁meeting	-9.69447
▁computer	-9.69457
▁شركتنا	-9.69492
▁manufacturing	-9.69514
▁التداول	-9.69541
▁الرعاية	-9.69544
time	-9.69622
▁TO	-9.69796
Whatever	-9.69814
▁mobile	-9.6984
▁الإدارة	-9.69842
12	-9.69843
▁View	-9.69881
▁ألعاب	-9.69892
▁"=-	-9.69931
▁region	-9.69936
▁الك	-9.69992
▁تعلم	-9.70049
▁UK	-9.70146
▁single	-9.70183
▁fill	-9.7022
▁Price	-9.7022
▁changes	-9.70233
pe	-9.70249
▁IP	-9.70255
▁80	-9.70265
24	-9.70298
▁across	-9.70308
رد	-9.7033
▁leading	-9.70423
▁Dr	-9.70465
▁1)	-9.70476
▁plastic	-9.70511
▁Social	-9.7063
▁quickly	-9.70634
▁needed	-9.70794
▁مساحة	-9.70888
▁الأدنى	-9.70909
15	-9.7091
▁industrial	-9.71015
▁السيارة	-9.71026
▁white	-9.71094
▁Yes	-9.71116
ts	-9.71142
▁لهم	-9.71161
▁paper	-9.71219
▁Factory	-9.71232
بر	-9.71266
▁الأداء	-9.71352
▁build	-9.71438
▁General	-9.71448
▁original	-9.71456
تهم	-9.71538
▁benefits	-9.71595
▁Media	-9.71605
▁store	-9.71653
▁الطرق	-9.71779
▁airport	-9.71802
▁code	-9.71841
▁طرق	-9.71862
va	-9.7193
▁سوق	-9.71937
▁مطار	-9.7197
▁تشمل	-9.72001
▁قوة	-9.7202
▁رئيس	-9.72119
▁Global	-9.72138
▁2011	-9.72158
▁present	-9.72212
لدينا	-9.72279
ae	-9.72279
▁برامج	-9.72295
▁Qatar	-9.72388
▁Android	-9.72408
▁..	-9.72468
▁الصناعة	-9.72478
▁employees	-9.72506
▁Go	-9.72514
▁d	-9.72725
▁الفني	-9.72742
▁بل	-9.72743
▁انقر	-9.72783
our	-9.7288
▁environmental	-9.72901
▁American	-9.72913
▁القائمة	-9.72948
▁2)	-9.72959
▁والنشر	-9.72963
▁ر	-9.72999
▁الدولة	-9.73068
▁سيارة	-9.73165
▁head	-9.73171
ER	-9.73199
▁especially	-9.73201
▁Facebook	-9.73482
▁costs	-9.73508
▁الرغم	-9.7352
▁مشاكل	-9.73543
▁عمر	-9.73589
▁يكن	-9.7359
▁issues	-9.73701
▁الأشخاص	-9.73786
▁display	-9.73804
▁القياسية	-9.73863
▁عمليات	-9.73877
▁الحالي	-9.73905
▁أداء	-9.73919
▁الحالية	-9.73921
▁Select	-9.74049
▁التنمية	-9.74077
▁takes	-9.74112
▁surface	-9.74257
يين	-9.74297
▁member	-9.7432
▁وحدة	-9.74345
▁35	-9.7436
▁Office	-9.74379
تر	-9.74414
▁تجد	-9.74451
▁State	-9.7449
▁اي	-9.74525
os	-9.74542
مهما	-9.7455
▁فيديو	-9.74566
بو	-9.74611
▁comments	-9.74658
▁31	-9.74658
▁List	-9.74726
▁inside	-9.74763
ous	-9.74822
▁foreign	-9.74831
▁لتحقيق	-9.74989
▁processing	-9.75007
▁28	-9.75032
▁effect	-9.75074
▁سريع	-9.75082
▁الأجهزة	-9.7509
▁نفسه	-9.75096
▁المشاركة	-9.75098
▁23	-9.75117
▁wish	-9.75131
ating	-9.75152
▁تحصل	-9.75163
▁shipment	-9.75265
▁l	-9.75266
▁السنة	-9.75296
There	-9.75332
▁IN	-9.75364
▁أجهزة	-9.75396
▁prevent	-9.75403
▁cover	-9.75454
▁major	-9.75497
▁AND	-9.75532
▁exchange	-9.75622
▁USA	-9.75765
▁التقنية	-9.75923
▁خ	-9.75977
▁skills	-9.75989
ac	-9.76038
▁Play	-9.76099
▁highest	-9.7614
▁أدوات	-9.76156
▁الصلة	-9.76178
▁معدل	-9.76222
كما	-9.76374
▁North	-9.76374
▁inspection	-9.76539
▁لوحة	-9.76545
min	-9.76562
▁1000	-9.76583
مثل	-9.7659
▁الأخبار	-9.76591
▁تأكيد	-9.76598
▁heat	-9.76672
بل	-9.76709
▁weeks	-9.76852
▁أسبوع	-9.76965
▁ومع	-9.77019
▁enough	-9.77062
▁منخفضة	-9.77073
ex	-9.77142
for	-9.77155
term	-9.7722
▁Product	-9.77229
▁cases	-9.77252
▁Inc	-9.77255
▁programs	-9.77266
▁مت	-9.77269
▁commercial	-9.77304
▁القانون	-9.77315
▁الموظفين	-9.77353
▁الكامل	-9.77365
▁Commission	-9.77396
اف	-9.774
▁transport	-9.77434
▁الشعر	-9.7744
▁توجد	-9.7752
▁وفقًا	-9.77562
What	-9.77656
▁Road	-9.77739
ba	-9.77755
▁El	-9.77766
▁includes	-9.7777
▁convenient	-9.77773
▁وكذلك	-9.77788
▁->	-9.77809
▁2010	-9.77853
▁والأ	-9.77877
▁ago	-9.77932
▁تجعل	-9.7798
▁Page	-9.781
▁select	-9.78191
▁location	-9.78293
▁الحجم	-9.78409
▁المجموعة	-9.78431
So	-9.7853
يس	-9.78547
▁picture	-9.78568
▁clear	-9.78605
▁opportunities	-9.78634
▁continue	-9.78698
▁صحيح	-9.78777
▁bring	-9.78832
▁packing	-9.78841
▁Education	-9.78904
land	-9.78913
لقد	-9.78949
ization	-9.78963
▁Cart	-9.78964
▁state	-9.79013
▁300	-9.79043
▁هم	-9.79103
▁direct	-9.7917
out	-9.79174
▁certain	-9.79196
▁comes	-9.79278
▁جامعة	-9.79296
▁orders	-9.79303
by	-9.79331
▁Special	-9.7935
▁might	-9.79373
▁stop	-9.79476
▁المناطق	-9.79482
▁كفاءة	-9.79556
▁stable	-9.79566
▁Store	-9.79643
▁الالكتروني	-9.79669
▁skin	-9.79672
ca	-9.7968
▁outside	-9.79687
▁version	-9.79718
▁levels	-9.79743
بي	-9.79743
▁Trade	-9.7978
▁ability	-9.79791
▁سريعة	-9.79835
▁series	-9.79948
▁بيئة	-9.79956
▁growth	-9.80111
▁maximum	-9.80165
▁leave	-9.80182
▁file	-9.8035
▁bank	-9.80356
▁الاقتصادية	-9.80458
▁points	-9.8048
اق	-9.80493
ge	-9.80549
▁أعمال	-9.80568
ip	-9.80622
▁impact	-9.80638
▁الغذائية	-9.80694
▁ارتفاع	-9.80713
▁الواقع	-9.8078
▁لهذه	-9.80905
▁partners	-9.80965
▁deliver	-9.81017
▁حين	-9.81062
▁وشاملة	-9.811
▁مقاومة	-9.81186
▁study	-9.81193
اع	-9.81264
▁hot	-9.81268
vi	-9.81306
▁احتياجات	-9.81352
▁German	-9.81358
▁اللازمة	-9.81389
▁المواقع	-9.81393
000	-9.81467
▁partner	-9.81533
▁حزمة	-9.8161
▁شعبية	-9.81862
▁usually	-9.81951
▁close	-9.81952
▁style	-9.81971
▁marketing	-9.82023
ti	-9.82068
▁رائعة	-9.82138
▁longer	-9.82179
▁Solutions	-9.82183
▁testing	-9.82203
em	-9.82316
▁bed	-9.8237
▁لمعرفة	-9.82389
▁components	-9.82405
▁مر	-9.82415
ial	-9.82433
▁تعزيز	-9.82497
▁Kuwait	-9.82503
▁بدء	-9.82591
▁عينات	-9.82673
▁Color	-9.82771
اه	-9.82777
▁متاحة	-9.82782
▁five	-9.82874
io	-9.82906
▁markets	-9.82987
عت	-9.82991
▁قابل	-9.83048
▁St	-9.83129
▁الخام	-9.83144
▁Taiwan	-9.83181
▁لعملائنا	-9.83225
▁فرصة	-9.83265
uk	-9.833
▁guide	-9.83352
▁حقا	-9.83372
▁require	-9.83376
▁fun	-9.83404
يت	-9.8342
▁rules	-9.83445
▁يقدم	-9.8345
▁تسليم	-9.83494
▁Have	-9.83512
▁base	-9.83669
®	-9.83676
▁advice	-9.83807
فا	-9.83814
▁insurance	-9.83853
▁يسمح	-9.83961
▁المجلس	-9.83979
op	-9.84055
▁Easy	-9.84059
▁استلام	-9.84069
▁الطبع	-9.84104
▁البرامج	-9.84139
▁That	-9.84149
▁رأس	-9.84204
▁جمع	-9.84298
▁الأشياء	-9.84316
40	-9.84465
▁قدر	-9.845
▁storage	-9.84525
▁photos	-9.84525
▁ترتيب	-9.84527
▁يحدث	-9.84548
▁يُ	-9.84553
▁Le	-9.84586
▁شاهد	-9.84639
▁Ro	-9.84646
▁التجاري	-9.84677
▁يعتمد	-9.8471
▁bag	-9.84719
▁الأمن	-9.84739
ّة	-9.8474
▁نشر	-9.84748
▁cannot	-9.8476
▁تخصيص	-9.84792
▁tool	-9.84797
▁مجرد	-9.84832
▁قابلة	-9.84867
▁term	-9.84898
▁النحو	-9.84914
▁established	-9.85003
▁لجعل	-9.85094
▁worldwide	-9.85195
▁position	-9.85266
▁معالجة	-9.85289
▁تفعل	-9.85311
▁attention	-9.85325
nd	-9.85387
EC	-9.85387
▁معايير	-9.85416
IN	-9.8543
EEC	-9.85436
▁النطاق	-9.85492
After	-9.85498
▁damage	-9.85574
▁المستوى	-9.85609
▁section	-9.85618
▁October	-9.85652
▁resistance	-9.85721
▁registration	-9.85765
▁allow	-9.85796
▁بالكامل	-9.85803
▁الجزء	-9.8582
▁Food	-9.85837
▁المجال	-9.85874
▁platform	-9.85892
▁بلد	-9.85903
▁currently	-9.85907
▁Water	-9.85929
▁الطباعة	-9.85951
ya	-9.85952
قبل	-9.86006
▁communication	-9.86013
▁pro	-9.861
▁printing	-9.86123
▁النفط	-9.86193
▁المحدد	-9.86212
▁v	-9.8629
▁TV	-9.86298
▁للاستخدام	-9.86396
AL	-9.86432
▁image	-9.86488
▁higher	-9.86598
ga	-9.86636
q	-9.86676
▁Previous	-9.86733
▁fully	-9.86751
▁للعمل	-9.86752
▁note	-9.86808
▁ODM	-9.86816
):	-9.8682
▁الكويت	-9.86839
▁ملفات	-9.86857
▁Games	-9.86887
▁الج	-9.86887
▁الاختبار	-9.86905
▁تبدأ	-9.86924
lu	-9.8696
▁26	-9.86983
▁~	-9.87007
bo	-9.87014
▁أننا	-9.87089
▁الطريقة	-9.87093
▁taken	-9.87095
▁الموارد	-9.87114
ni	-9.87149
ap	-9.87211
▁3)	-9.87249
▁USD	-9.87261
At	-9.87262
▁method	-9.87279
▁الشباب	-9.87331
▁app	-9.87351
▁Transfer	-9.87408
▁كن	-9.87446
▁القانونية	-9.87468
▁Let	-9.87549
وم	-9.87693
▁OF	-9.87705
▁men	-9.87714
▁القيمة	-9.87734
▁Email	-9.87759
▁إلغاء	-9.87763
▁والت	-9.87766
▁بنسبة	-9.87779
▁door	-9.8781
IC	-9.87815
▁معرض	-9.87865
▁"7.	-9.87868
▁الطبيعية	-9.87915
▁black	-9.87935
كس	-9.87939
By	-9.87976
يتم	-9.88042
▁تعريف	-9.88051
▁النوع	-9.88116
▁إنه	-9.88179
▁Black	-9.88256
▁sell	-9.88271
▁صنع	-9.88284
▁التأمين	-9.88301
▁languages	-9.8839
▁الخارج	-9.88393
▁الملابس	-9.88416
▁آسيا	-9.88447
▁؛"	-9.88455
▁أسرع	-9.88455
▁للأطفال	-9.88482
▁minimum	-9.88485
▁مقابل	-9.88523
▁قاعدة	-9.8857
▁"1	-9.88609
▁معك	-9.88714
▁God	-9.88798
ner	-9.88849
▁إي	-9.88885
ED	-9.88885
▁الخارجية	-9.88914
▁الصينية	-9.88942
▁تقييم	-9.88949
▁heart	-9.8897
▁Air	-9.89019
▁Industrial	-9.89025
▁Register	-9.89035
▁got	-9.89047
▁allows	-9.89072
ors	-9.89133
▁quick	-9.89201
▁يقوم	-9.8926
▁taking	-9.89263
▁منزل	-9.89317
▁See	-9.89341
▁المحلي	-9.89379
▁hour	-9.8939
▁meters	-9.89434
▁بذلك	-9.89435
▁بريد	-9.89459
fa	-9.89461
▁detailed	-9.89489
▁self	-9.89606
▁48	-9.89694
جميع	-9.89703
son	-9.89704
▁Women	-9.89706
▁young	-9.8974
▁الحالات	-9.89751
ري	-9.89763
▁updated	-9.89789
▁whether	-9.8986
▁register	-9.89894
▁استخدامه	-9.89914
16	-9.9
عة	-9.90015
▁Book	-9.90041
▁ideas	-9.90059
ang	-9.90096
▁المقدمة	-9.90124
▁لديهم	-9.90125
▁December	-9.90126
▁Machine	-9.90133
▁Russia	-9.90135
▁move	-9.90157
▁الماضي	-9.90189
▁b	-9.90244
so	-9.9026
▁advance	-9.90271
يز	-9.90279
▁الحل	-9.90301
▁mind	-9.90334
▁فعل	-9.90363
▁(3)	-9.90444
▁benefit	-9.9045
line	-9.90454
▁بنك	-9.90455
How	-9.90501
▁privacy	-9.90511
هذه	-9.90529
عندما	-9.90537
▁سم	-9.90562
▁fields	-9.90567
▁دائمًا	-9.90567
▁Emirates	-9.90755
ish	-9.90798
▁اثنين	-9.90857
▁خيار	-9.90893
▁خيارات	-9.90937
ظ	-9.91073
▁Data	-9.91081
▁مؤسسة	-9.91095
▁الحماية	-9.91166
▁past	-9.91202
▁operating	-9.91204
▁normal	-9.9125
ci	-9.91333
▁Customer	-9.91356
▁devices	-9.91378
▁option	-9.91418
▁المناسبة	-9.91512
▁condition	-9.91512
▁everyone	-9.91588
▁loss	-9.9159
▁تعديل	-9.91694
ina	-9.91764
▁2000	-9.91865
▁paid	-9.91908
اك	-9.91986
▁gas	-9.92003
▁يبدو	-9.92005
▁نقطة	-9.92006
▁الفور	-9.92048
▁يقيم	-9.92105
▁Un	-9.92111
▁الاجتماعي	-9.92131
men	-9.92139
▁relationship	-9.92204
▁يحتاج	-9.92247
▁workers	-9.92309
▁opportunity	-9.92332
▁●	-9.92346
▁immediately	-9.92348
▁Security	-9.9241
▁recommend	-9.92475
▁الضوء	-9.92484
▁المدرسة	-9.92497
▁الصلب	-9.92512
▁المن	-9.92516
▁Control	-9.9254
▁الواحد	-9.92544
رس	-9.92558
▁عالم	-9.92574
▁أين	-9.9259
▁فهم	-9.9261
▁بحث	-9.92619
▁Power	-9.92631
▁الأحيان	-9.92657
يمكنك	-9.92673
▁2008	-9.92706
▁fire	-9.92738
ny	-9.92764
▁العملات	-9.92788
▁تكنولوجيا	-9.92846
▁30%	-9.92866
▁البشرية	-9.92918
▁إعداد	-9.92927
▁added	-9.92955
ut	-9.92986
▁علم	-9.93004
▁الكاملة	-9.93045
▁Me	-9.93061
▁FOR	-9.9308
▁Supplier	-9.93092
▁فضلك	-9.93118
▁talk	-9.93182
per	-9.93262
▁المركز	-9.93272
▁مدار	-9.93303
ST	-9.93308
▁included	-9.93377
▁logo	-9.9342
download	-9.93475
▁الاحتياجات	-9.9351
▁install	-9.93563
▁Australia	-9.93611
▁January	-9.93622
▁Help	-9.93663
▁source	-9.93678
▁strength	-9.93688
▁receiving	-9.93771
▁Building	-9.93798
▁red	-9.93799
▁agree	-9.93854
▁أفريقيا	-9.93905
▁dis	-9.93985
▁Search	-9.94034
▁Last	-9.94036
▁متجر	-9.9407
▁مثالية	-9.94368
▁Canada	-9.94377
▁صغير	-9.9438
▁living	-9.94434
▁unit	-9.94454
▁السلع	-9.94475
▁green	-9.94478
▁Red	-9.9448
▁consumption	-9.94499
▁بسعر	-9.94538
di	-9.94548
On	-9.94583
▁العمر	-9.94599
▁الشمس	-9.9461
ability	-9.94616
▁27	-9.94624
▁علاج	-9.94659
▁الحاجة	-9.94703
▁ذوي	-9.94747
▁المعايير	-9.94773
▁anywhere	-9.94778
▁idea	-9.94781
▁متوفرة	-9.94796
▁قطاع	-9.94836
▁إزالة	-9.94849
▁files	-9.94854
▁PDF	-9.94969
▁LTD	-9.94993
▁النهائي	-9.9503
▁having	-9.95033
▁maintain	-9.95056
▁النص	-9.95117
▁تلبية	-9.95157
▁الان	-9.95199
▁largest	-9.95201
▁أقصى	-9.95204
▁الألعاب	-9.95261
▁deal	-9.95273
▁الملكية	-9.95279
▁النساء	-9.95294
▁دخول	-9.95296
▁Choose	-9.95354
ثق	-9.95382
▁نظرة	-9.95384
▁successful	-9.95451
▁ألمانيا	-9.95456
▁=	-9.95489
▁شحن	-9.9551
▁responsible	-9.95524
▁تقرير	-9.9558
در	-9.95608
▁يساعد	-9.95623
▁انخفاض	-9.95654
▁st	-9.95658
آ	-9.95671
80	-9.9568
▁2009	-9.95689
▁Top	-9.95696
▁official	-9.95738
صل	-9.95766
▁أعضاء	-9.9577
▁الانتهاء	-9.9579
▁موعد	-9.95792
▁ever	-9.95803
deh	-9.95831
du	-9.95857
▁الفنية	-9.95862
▁نفسك	-9.95887
▁demand	-9.95989
▁Area	-9.96047
▁التوجيه	-9.96062
▁وسيتم	-9.96063
▁throughout	-9.96073
▁محطة	-9.96074
SE	-9.96097
ize	-9.96174
top	-9.96191
▁أمريكا	-9.96199
tro	-9.96203
▁إضافي	-9.96233
▁التطبيقات	-9.96294
▁EU	-9.96307
▁custom	-9.96346
▁activity	-9.96364
▁سرعة	-9.96423
°	-9.96461
دة	-9.965
▁battery	-9.9651
▁automatically	-9.96514
▁lead	-9.96522
▁استبدال	-9.96526
▁مناسب	-9.96542
▁Ra	-9.96617
▁التاريخ	-9.96618
▁hotels	-9.96649
▁effects	-9.96698
▁anti	-9.96719
▁vehicle	-9.9676
فة	-9.96764
▁عشر	-9.96826
▁عيد	-9.96827
ينا	-9.96906
▁فرص	-9.96909
▁packaging	-9.96918
▁الأدوات	-9.96958
▁--	-9.97062
▁الطفل	-9.97109
▁الأنشطة	-9.97172
▁Conditions	-9.97203
pa	-9.97211
جر	-9.97267
▁protected	-9.97291
▁Bo	-9.97298
▁Video	-9.97316
▁قطعة	-9.97322
▁history	-9.97328
▁final	-9.97336
▁لأكثر	-9.97369
▁film	-9.97382
▁طويل	-9.97401
▁valid	-9.97517
▁الحجز	-9.97526
▁held	-9.97543
▁Human	-9.97606
▁culture	-9.97608
▁Check	-9.9762
▁أحب	-9.97645
ph	-9.97687
▁votes	-9.97713
اط	-9.97721
▁pictures	-9.97748
▁أخبار	-9.97787
▁علامة	-9.97829
▁raw	-9.97841
▁العربي	-9.97909
▁photo	-9.97909
▁الصيانة	-9.97961
▁places	-9.97998
▁Note	-9.98003
▁given	-9.98144
aqee	-9.98154
▁دول	-9.9825
▁لفترة	-9.98251
▁المحتوى	-9.98336
▁matter	-9.98422
سل	-9.98466
▁الحق	-9.98476
▁الكبيرة	-9.98571
▁منظمة	-9.9859
▁المكونات	-9.98641
▁action	-9.98693
▁repair	-9.98703
يون	-9.98709
▁Spanish	-9.98718
▁drive	-9.98747
▁fees	-9.98861
هن	-9.98902
▁المستخدمين	-9.98929
ism	-9.98931
▁تحتوي	-9.98979
▁المخاطر	-9.98986
▁widely	-9.99017
ft	-9.99264
▁music	-9.99319
▁March	-9.99329
▁إدخال	-9.99367
▁serve	-9.99382
▁left	-9.99396
▁يزال	-9.99414
ms	-9.99433
▁ول	-9.9948
▁الطلاب	-9.99481
ck	-9.99498
▁نسخة	-9.99509
po	-9.99515
▁المورد	-9.99545
▁القطاع	-9.99592
▁length	-9.99691
▁الرقم	-9.99694
▁طول	-9.997
▁organization	-9.99749
ally	-9.99763
▁اليومية	-9.99795
▁role	-9.99802
▁Mo	-9.99887
▁comfortable	-9.99897
▁appropriate	-9.99907
▁words	-9.99981
▁مريحة	-10.0003
▁قدرة	-10.0004
▁track	-10.0006
▁محددة	-10.0007
▁أهمية	-10.0012
▁الجنس	-10.002
▁الكيميائية	-10.0022
كر	-10.0022
قم	-10.0023
▁اتخاذ	-10.0024
▁solve	-10.0027
▁hands	-10.0028
▁السابق	-10.003
pdf	-10.0031
▁Some	-10.0041
▁المكان	-10.0043
ted	-10.0046
▁created	-10.0046
ise	-10.0047
▁القادمة	-10.0053
▁الأخيرة	-10.0057
▁operate	-10.0058
▁مدير	-10.0062
عد	-10.0064
▁،"	-10.0066
▁إلينا	-10.007
▁غ	-10.0071
om	-10.0074
▁وظائف	-10.008
▁profile	-10.008
▁Life	-10.0082
▁Network	-10.0084
▁doctor	-10.0086
▁registered	-10.0094
▁ship	-10.0095
▁transportation	-10.0096
▁Real	-10.01
▁إلكتروني	-10.0101
▁con	-10.0104
▁وجه	-10.0105
▁الحقيقي	-10.011
é	-10.0111
قر	-10.0112
▁بم	-10.0119
سب	-10.0122
▁particular	-10.0124
▁العلامات	-10.0124
▁thing	-10.0126
▁ترك	-10.013
light	-10.014
▁follows	-10.0141
▁الحلول	-10.0143
▁society	-10.0144
▁multiple	-10.0146
▁Jordan	-10.0148
▁started	-10.0153
17	-10.0158
▁Will	-10.0159
▁تحقق	-10.016
▁response	-10.0161
▁الباب	-10.0161
▁trust	-10.0162
▁تجنب	-10.0169
▁specifications	-10.0174
▁ملء	-10.0175
▁write	-10.0176
▁جميلة	-10.0183
▁سهل	-10.0183
▁Just	-10.0184
▁procedure	-10.0197
▁المستمر	-10.0202
▁الحيوانات	-10.0206
▁"©	-10.0208
90	-10.0209
فو	-10.021
▁الر	-10.022
▁عقد	-10.0221
▁basic	-10.0222
▁ربما	-10.0228
▁digital	-10.0229
▁روسيا	-10.023
▁اللعبة	-10.0237
▁29	-10.0238
▁العناصر	-10.0239
▁lower	-10.0245
▁Number	-10.0249
▁run	-10.0249
▁معا	-10.0251
▁يحتوي	-10.0257
▁بموجب	-10.0258
▁فمن	-10.0262
ning	-10.0266
▁respect	-10.0266
▁شارع	-10.0269
▁rest	-10.0271
طر	-10.0274
▁board	-10.0275
ؤ	-10.0279
▁Man	-10.0284
▁بأي	-10.0286
▁reference	-10.0287
▁experienced	-10.0289
▁150	-10.029
▁metal	-10.029
▁Name	-10.0293
▁focus	-10.0294
▁dry	-10.0299
▁الجدول	-10.0314
▁weather	-10.0321
▁Market	-10.0328
▁إصلاح	-10.0328
▁طفل	-10.0333
▁إمكانية	-10.0334
▁art	-10.0339
▁cut	-10.0346
▁copy	-10.0346
▁party	-10.0351
qu	-10.0352
▁Bahrain	-10.0353
▁assistance	-10.0353
▁Na	-10.0355
▁الأسواق	-10.0356
اش	-10.0359
▁الفرنسية	-10.036
red	-10.0368
▁ستكون	-10.0369
▁September	-10.037
▁الخيارات	-10.0373
▁feedback	-10.0374
▁known	-10.0374
▁sizes	-10.0376
▁win	-10.0376
▁update	-10.0378
▁June	-10.0379
ities	-10.0381
▁g	-10.0381
▁land	-10.0382
▁multi	-10.0384
▁باللغة	-10.0386
▁المت	-10.0391
▁رائع	-10.0391
▁تصدير	-10.0395
▁basis	-10.0396
▁fact	-10.0396
طب	-10.0406
▁الكتاب	-10.0409
▁9.	-10.041
▁certificate	-10.0416
hi	-10.0416
▁تحمل	-10.0418
▁useful	-10.0421
▁مخصصة	-10.0436
▁decision	-10.0438
▁Where	-10.0438
dy	-10.0439
500	-10.044
▁قبول	-10.0442
▁جنوب	-10.045
▁خدماتنا	-10.0453
▁أهم	-10.0457
▁مستويات	-10.0464
▁مراجعة	-10.0468
▁India	-10.0479
▁تظهر	-10.0482
▁عروض	-10.0487
▁Law	-10.0489
▁الدم	-10.0491
▁نعمل	-10.0492
▁Green	-10.0494
▁قال	-10.0495
جو	-10.0497
▁اللغات	-10.05
▁k	-10.0504
وية	-10.0508
▁الحديثة	-10.0508
يق	-10.0509
هر	-10.0512
▁Community	-10.0513
▁x	-10.0515
▁Li	-10.0515
▁التسويق	-10.0518
▁المفضلة	-10.0519
▁بكثير	-10.0521
▁efficient	-10.0523
▁تساعد	-10.0527
▁Who	-10.0532
▁الشبكة	-10.0534
فل	-10.054
▁المتقدمة	-10.0544
▁Up	-10.0546
▁Visit	-10.0547
▁Japan	-10.0556
▁نرحب	-10.0557
طلب	-10.056
▁أنظمة	-10.0567
أي	-10.0575
▁السابقة	-10.0587
▁purposes	-10.06
▁احصل	-10.0603
▁بحيث	-10.0605
▁Regulation	-10.061
▁رمز	-10.0618
▁المزود	-10.062
▁convert	-10.0621
نس	-10.0627
▁healthy	-10.0628
▁الثانية	-10.0632
▁Shopping	-10.0633
▁عضو	-10.0638
▁Italian	-10.064
▁تُ	-10.064
▁كثير	-10.0648
60	-10.0658
▁electronic	-10.0663
▁°	-10.0669
▁almost	-10.067
▁situation	-10.067
▁Fast	-10.067
▁consider	-10.0671
EN	-10.0674
▁plant	-10.0678
▁Buy	-10.0682
▁الحالة	-10.0684
▁Take	-10.0684
▁المشكلة	-10.0688
▁automatic	-10.0689
▁وغير	-10.0696
▁تدريب	-10.0698
▁الل	-10.0702
ja	-10.0702
▁potential	-10.0709
َّ	-10.0711
▁White	-10.0713
▁highly	-10.0715
▁videos	-10.0723
▁>>	-10.0727
يد	-10.0727
▁Medical	-10.0728
▁رو	-10.0728
pi	-10.073
▁shape	-10.073
▁الهيئة	-10.0736
▁العنوان	-10.0736
ber	-10.0737
▁difference	-10.0739
▁مصدر	-10.0746
ab	-10.075
der	-10.0751
▁المستخدمة	-10.0753
▁بطريقة	-10.0755
▁المرأة	-10.0755
▁Open	-10.0759
▁Most	-10.0762
▁Start	-10.0762
▁بكل	-10.0769
▁مدة	-10.077
▁تنظيم	-10.0772
▁الأموال	-10.0778
ium	-10.0782
▁الاتصالات	-10.0784
▁Project	-10.0787
▁وعلى	-10.0788
end	-10.0788
▁Po	-10.0796
▁الجميع	-10.0796
▁كذلك	-10.0799
▁discount	-10.08
ship	-10.0811
تصل	-10.0815
▁الرسمي	-10.0818
High	-10.082
▁الأسهم	-10.0823
▁رؤية	-10.0826
▁Year	-10.0826
▁"2	-10.0839
▁School	-10.0842
▁UN	-10.0843
▁والأحكام	-10.0851
▁4)	-10.0852
▁issue	-10.0853
▁measures	-10.0855
con	-10.0855
▁Ad	-10.0862
▁Department	-10.0871
ps	-10.0873
▁قوي	-10.0873
▁خطة	-10.0874
tion	-10.0898
▁المكتب	-10.0904
▁يستغرق	-10.0907
▁purpose	-10.0908
▁detail	-10.091
▁تقنية	-10.091
▁البلاستيك	-10.0911
▁April	-10.0911
of	-10.0912
▁تخزين	-10.0913
▁Research	-10.0915
▁Work	-10.0915
▁العودة	-10.0917
▁road	-10.0932
▁جداً	-10.0936
▁reasons	-10.0937
▁Syria	-10.0939
▁goal	-10.094
▁Turkish	-10.0944
RE	-10.0945
▁Industry	-10.0948
▁الآلات	-10.0949
▁facilities	-10.0951
▁السرعة	-10.0955
▁عملك	-10.0956
▁تي	-10.0962
يرجى	-10.0964
▁rates	-10.0964
▁patients	-10.0969
▁capital	-10.0971
▁Di	-10.0977
tra	-10.0977
▁تثبيت	-10.0978
▁far	-10.0984
▁Travel	-10.0995
▁قانون	-10.0996
▁turn	-10.1001
▁Lebanon	-10.1002
▁المدى	-10.1003
▁الفترة	-10.1009
▁grow	-10.101
ho	-10.1013
▁relevant	-10.1013
▁50%	-10.1014
▁Account	-10.1016
▁لتحسين	-10.1017
▁confirm	-10.1018
▁App	-10.1025
▁إليه	-10.1025
wa	-10.1028
▁حق	-10.103
▁manufacture	-10.1036
▁password	-10.1036
▁الشخص	-10.1038
▁Type	-10.1039
▁Japanese	-10.1043
▁France	-10.1056
▁الغاز	-10.1057
▁نسبة	-10.1066
▁Training	-10.1067
▁عامة	-10.1071
▁Total	-10.1074
▁similar	-10.1075
▁limited	-10.1078
▁Keep	-10.1078
▁المذكورة	-10.108
▁She	-10.1082
▁المشاكل	-10.1088
▁Every	-10.1093
▁البلد	-10.1093
▁فحص	-10.1094
▁الصحيح	-10.1096
▁November	-10.1096
▁Software	-10.1099
▁والتغليف	-10.1101
▁Each	-10.1103
▁hesitate	-10.1107
وز	-10.1107
▁getting	-10.1108
تا	-10.1112
▁دور	-10.1115
يو	-10.1117
▁السنوات	-10.1118
▁department	-10.1118
▁selection	-10.1126
▁procedures	-10.1127
▁العروض	-10.1127
▁chemical	-10.1128
tain	-10.113
▁قمت	-10.1132
▁الحكومية	-10.1136
▁class	-10.1137
he	-10.114
▁يقع	-10.1141
13	-10.1142
▁آلات	-10.1143
▁offered	-10.1144
▁الشهر	-10.1151
▁الرياضية	-10.1154
وال	-10.1156
▁منصة	-10.1163
lic	-10.1168
▁استهلاك	-10.1175
▁correct	-10.1176
ES	-10.1181
99	-10.1183
▁patient	-10.1183
▁الممكن	-10.119
▁Suppliers	-10.1192
نة	-10.1195
▁أداة	-10.1197
▁Children	-10.1198
▁degree	-10.12
ite	-10.1202
▁developed	-10.1206
▁Light	-10.1209
▁دورة	-10.1213
▁cause	-10.1213
▁Don	-10.1214
▁collection	-10.1215
▁Vi	-10.1216
▁Mi	-10.1219
▁تكاليف	-10.122
▁البحرين	-10.1221
ard	-10.1225
▁مراسلتنا	-10.1225
king	-10.1229
▁سرير	-10.1234
les	-10.1235
▁thank	-10.1235
▁مجموعات	-10.1238
▁الشخصي	-10.124
▁Blue	-10.124
▁designs	-10.1241
دار	-10.1243
▁الأبيض	-10.1244
▁map	-10.125
▁التلقائي	-10.1254
▁suppliers	-10.1256
سوف	-10.1256
▁Learn	-10.1259
▁doing	-10.126
▁reason	-10.126
▁item	-10.1261
▁والذي	-10.1269
▁Visa	-10.127
▁الطبيعي	-10.1271
فت	-10.1271
▁iPhone	-10.1273
▁التثبيت	-10.1274
▁motor	-10.1283
70	-10.1285
▁regarding	-10.13
▁Mr	-10.1301
▁ضوء	-10.1305
▁fee	-10.1309
▁trip	-10.131
وفي	-10.1313
▁rooms	-10.1313
Copyright	-10.1316
▁تركيب	-10.1329
▁الائتمان	-10.1331
▁بداية	-10.1331
▁Long	-10.1332
ائي	-10.1332
▁وإ	-10.134
▁الرابط	-10.1341
▁Italy	-10.1346
▁الوثائق	-10.1347
▁تصبح	-10.1349
▁visa	-10.135
▁الروسية	-10.1353
هو	-10.1353
ries	-10.1354
▁مشاريع	-10.1363
▁Abu	-10.1367
▁express	-10.1368
يوم	-10.1369
▁"3	-10.137
بار	-10.137
▁المعرض	-10.1371
01	-10.1372
حة	-10.1375
▁Bar	-10.1375
ana	-10.1376
▁إليك	-10.1376
ef	-10.1377
▁wear	-10.1378
▁blood	-10.1385
can	-10.1392
▁Airport	-10.1393
▁سطح	-10.1394
▁active	-10.1396
▁الأصلي	-10.1401
▁peace	-10.1406
كو	-10.1406
▁goals	-10.1407
قة	-10.141
AR	-10.1412
US	-10.1413
▁ديسمبر	-10.1414
▁Over	-10.1414
▁average	-10.1417
mb	-10.1417
ow	-10.1418
▁البوابة	-10.1419
▁الرسوم	-10.1419
▁import	-10.1419
▁فلا	-10.1422
▁حاليا	-10.1423
▁interesting	-10.1426
▁تعليقات	-10.1429
▁specialized	-10.1431
▁الهند	-10.1433
▁sites	-10.1434
▁وكيف	-10.1436
way	-10.1437
▁مارس	-10.1437
▁النمو	-10.1448
100	-10.1452
sion	-10.1452
▁أسابيع	-10.1453
أن	-10.1461
▁Republic	-10.1466
▁built	-10.1468
▁contract	-10.1468
▁someone	-10.147
▁هيكل	-10.148
▁قدم	-10.1483
▁currency	-10.1486
▁مستقبل	-10.1486
▁للبيع	-10.1489
▁النجاح	-10.1493
▁محرك	-10.1498
21	-10.1502
▁w	-10.1503
▁غرف	-10.1508
▁wall	-10.1509
رات	-10.1511
cm	-10.1511
▁القيادة	-10.1514
▁نقاط	-10.1514
▁shopping	-10.1515
▁Personal	-10.1518
▁Su	-10.152
▁developing	-10.1524
▁الرائدة	-10.1527
▁Directive	-10.1531
صب	-10.1531
▁بالجملة	-10.1532
▁depends	-10.1535
▁النار	-10.1537
▁الأماكن	-10.154
▁Ex	-10.1541
▁الفنادق	-10.1543
▁sports	-10.1544
--	-10.1546
▁category	-10.1547
▁collect	-10.1548
ran	-10.1549
▁انه	-10.1554
▁press	-10.1556
▁لمساعدتك	-10.1559
▁discuss	-10.1562
▁التركيب	-10.1563
▁حالات	-10.1564
▁later	-10.1567
▁وبالتالي	-10.1569
▁كتاب	-10.157
English	-10.157
pm	-10.1571
▁cold	-10.1573
تو	-10.1577
▁فقد	-10.1578
▁watch	-10.1579
▁الشاشة	-10.1585
لمزيد	-10.1586
وق	-10.1588
▁Investment	-10.1589
▁aim	-10.159
▁تأخذ	-10.1593
▁Official	-10.1595
▁join	-10.1595
▁حسابك	-10.1596
▁Manufacturers	-10.1598
▁train	-10.16
▁Energy	-10.1602
▁Full	-10.1603
تان	-10.1604
▁تناول	-10.1604
und	-10.1606
▁Care	-10.1606
▁اضغط	-10.1608
▁easier	-10.1613
▁أكتوبر	-10.1615
▁الحكومة	-10.1616
▁الملفات	-10.1619
▁لدي	-10.1621
▁الخط	-10.1624
▁half	-10.1629
▁sex	-10.1639
▁r	-10.164
▁والموردين	-10.1647
▁sign	-10.1658
▁electric	-10.1659
▁الأصلية	-10.1663
▁لغة	-10.1671
▁notice	-10.1672
▁الحب	-10.1674
IT	-10.1674
day	-10.1676
▁analysis	-10.1679
▁print	-10.168
▁Mar	-10.1684
غا	-10.1684
▁near	-10.1688
all	-10.1689
▁خطوة	-10.1689
▁الحساب	-10.169
▁إجراءات	-10.1691
▁units	-10.1693
خدمة	-10.1694
▁Centre	-10.1696
▁خلق	-10.1707
vo	-10.171
▁IT	-10.1717
▁الليلة	-10.1718
جي	-10.1719
▁Password	-10.172
ko	-10.1725
▁Test	-10.1726
▁الطلبات	-10.1729
▁existing	-10.1729
ek	-10.1731
ag	-10.1738
▁قادرة	-10.174
▁six	-10.1747
▁الأحمر	-10.1748
▁باستمرار	-10.1749
▁مجاناً	-10.1756
▁المواصفات	-10.1758
▁مقارنة	-10.1758
▁عنه	-10.176
هناك	-10.1761
مان	-10.1766
▁thanks	-10.1768
▁Standard	-10.1768
que	-10.1768
ping	-10.177
▁rich	-10.1776
▁تأتي	-10.1783
▁[...]	-10.1783
▁لبنان	-10.1787
▁Economic	-10.179
▁الطقس	-10.1795
▁manage	-10.1799
وك	-10.18
▁applied	-10.1804
▁#1	-10.1806
رت	-10.1807
ten	-10.1815
▁فعالة	-10.1818
▁posted	-10.1819
au	-10.1819
▁أيضاً	-10.1821
▁Park	-10.1825
▁"2)	-10.1825
▁Ma	-10.1825
▁Word	-10.183
▁الدورة	-10.1834
▁blue	-10.1836
عادة	-10.1838
ster	-10.1839
كيفية	-10.184
side	-10.1841
▁وتطوير	-10.1845
▁Limited	-10.1845
▁groups	-10.1848
ier	-10.1848
بالإضافة	-10.1848
ue	-10.1849
▁experts	-10.1851
port	-10.1852
▁helps	-10.1857
▁Mobile	-10.1857
▁cool	-10.1858
▁starting	-10.1858
▁إطار	-10.1867
▁أولا	-10.1868
▁تتبع	-10.1871
▁جو	-10.1873
▁الو	-10.1876
▁advantage	-10.1876
جل	-10.1892
ot	-10.1896
▁positive	-10.1899
▁manufacturers	-10.1903
▁PC	-10.1903
▁@	-10.1906
▁Ar	-10.1908
▁التركيز	-10.191
▁February	-10.1911
Pro	-10.1916
▁جرا	-10.1917
▁وخدمة	-10.1917
▁button	-10.1918
▁سلامة	-10.1918
عيد	-10.192
▁LLC	-10.1923
▁تصنيف	-10.1925
ven	-10.1927
▁organizations	-10.193
▁glass	-10.1936
▁نظر	-10.1937
▁رحلة	-10.1939
▁responsibility	-10.1939
▁اله	-10.1939
▁parties	-10.1943
▁اعتماد	-10.1947
▁يناير	-10.195
▁رد	-10.1951
▁القدم	-10.1952
▁جيدا	-10.1953
▁البدء	-10.1954
▁respond	-10.1956
▁nice	-10.1958
▁استعداد	-10.196
▁Low	-10.1964
سم	-10.1972
▁learning	-10.1972
▁تحليل	-10.1972
▁إصدار	-10.1974
▁floor	-10.1978
▁السلطة	-10.1982
▁internal	-10.1982
▁uses	-10.1984
bi	-10.1984
▁reasonable	-10.1991
ke	-10.1992
▁front	-10.2
▁العادية	-10.2002
▁assist	-10.2002
mp	-10.2003
▁خصم	-10.2006
ec	-10.2007
▁true	-10.2008
▁EUR	-10.2011
▁المعرفة	-10.2011
▁published	-10.2012
free	-10.2012
قل	-10.2016
▁Post	-10.202
▁Western	-10.2021
▁مهمة	-10.2022
▁يت	-10.2032
يّة	-10.2032
▁بأسعار	-10.2036
▁متى	-10.2038
▁story	-10.2042
▁تأكد	-10.2044
▁Program	-10.2049
▁الإعلام	-10.2059
با	-10.2059
▁Committee	-10.2059
▁carry	-10.2062
▁Mac	-10.2067
kg	-10.2067
▁مئوية	-10.2068
▁regular	-10.207
مة	-10.2071
▁التفتيش	-10.2071
▁مفيدة	-10.2072
sales	-10.2083
▁Card	-10.2086
▁وأنا	-10.2098
▁ideal	-10.2106
▁10%	-10.2107
▁traditional	-10.2113
▁Digital	-10.2115
▁الوظائف	-10.2117
▁حجز	-10.2122
▁الموضوع	-10.2122
▁القسم	-10.2122
▁square	-10.2126
▁sub	-10.2131
مل	-10.214
▁تعليق	-10.2147
▁المطار	-10.2149
إ	-10.215
▁محمد	-10.2154
▁accessories	-10.2154
▁سعداء	-10.2155
▁مشاركة	-10.2155
▁plans	-10.2157
حل	-10.2163
▁ثانية	-10.2165
▁عنها	-10.2167
▁الصحي	-10.2168
▁scientific	-10.2172
▁أعرف	-10.2175
▁double	-10.2177
▁السبب	-10.2178
▁ورقة	-10.2181
▁تطبيقات	-10.2182
▁صديق	-10.2186
▁operations	-10.2186
▁غيرها	-10.2187
▁المحمول	-10.2188
أنا	-10.2189
▁internet	-10.219
▁مو	-10.2196
za	-10.2197
▁recommended	-10.2197
ture	-10.2198
▁beginning	-10.2198
يرة	-10.2204
اني	-10.2207
▁nature	-10.2207
نز	-10.2209
▁وحتى	-10.2214
▁الرقمية	-10.2215
▁الميلاد	-10.2216
14	-10.2224
▁مل	-10.223
▁either	-10.2232
▁قصيرة	-10.2237
▁Send	-10.2239
22	-10.2239
you	-10.2241
▁لأنه	-10.2242
▁تعتمد	-10.2242
▁تزال	-10.2244
▁appearance	-10.2247
▁شاشة	-10.2248
▁وس	-10.2249
ide	-10.225
▁عامًا	-10.2259
IS	-10.2268
▁يأتي	-10.2272
عرض	-10.2273
▁en	-10.2275
▁innovative	-10.2277
▁الألمانية	-10.2278
▁سبتمبر	-10.2279
▁الاسم	-10.2282
▁الغرفة	-10.2282
sh	-10.2282
▁بالتأكيد	-10.2282
▁station	-10.2284
▁فإننا	-10.2285
▁أربعة	-10.2286
▁July	-10.229
▁الداخلي	-10.2292
▁لعرض	-10.2297
ure	-10.2302
▁baby	-10.2304
▁مهم	-10.2305
▁fit	-10.2306
▁مزود	-10.2311
▁لشركة	-10.2311
▁dedicated	-10.2313
▁شخصية	-10.2315
▁أخذ	-10.2315
▁استخدم	-10.2317
▁الرئيس	-10.2317
▁الاشتراك	-10.232
▁الصيف	-10.2322
▁للاهتمام	-10.2325
▁شرق	-10.2326
ud	-10.2329
▁committed	-10.233
ile	-10.2338
▁Team	-10.2342
lin	-10.2347
▁التصنيع	-10.2349
▁تقريبا	-10.2356
▁والإ	-10.2357
▁التقدم	-10.2358
▁moment	-10.2358
▁التمويل	-10.2362
▁الشمسية	-10.2366
رك	-10.2369
▁بهم	-10.2372
▁الاختيار	-10.2376
Al	-10.2378
▁الص	-10.2379
▁المهم	-10.2381
▁الغيار	-10.2383
▁lines	-10.2385
▁Sign	-10.2386
▁Game	-10.2393
▁تتم	-10.2394
▁المعالجة	-10.2395
▁حياتك	-10.2398
▁considered	-10.2398
▁محاولة	-10.24
▁accounts	-10.2401
▁load	-10.2402
▁مم	-10.2407
بن	-10.2408
▁صندوق	-10.241
rd	-10.241
حر	-10.2411
▁وأن	-10.2412
▁120	-10.2414
quality	-10.2415
▁منك	-10.2416
▁summer	-10.2419
▁values	-10.2424
▁الإقامة	-10.2431
▁بلدي	-10.2434
▁distance	-10.2436
▁Host	-10.2436
▁warm	-10.2439
تقدم	-10.2443
▁institutions	-10.2443
▁(4)	-10.2444
▁الفئة	-10.2446
▁Call	-10.2448
▁tax	-10.2452
izing	-10.2459
▁depending	-10.2459
ible	-10.2461
▁فكرة	-10.2463
▁التأكد	-10.2464
▁إيداع	-10.2464
▁لحماية	-10.2472
▁opening	-10.2474
▁Show	-10.2477
▁الاعتبار	-10.2479
RA	-10.2479
لو	-10.2484
▁تسمح	-10.2493
▁سابق	-10.2496
▁ضغط	-10.2499
▁Government	-10.2501
ID	-10.2501
ator	-10.2502
▁vehicles	-10.2502
▁سيارات	-10.2505
▁والعمل	-10.2508
▁الطيران	-10.2509
▁vision	-10.251
gu	-10.2511
▁sold	-10.2513
▁قمنا	-10.2514
▁طوال	-10.2518
▁32	-10.2519
▁معينة	-10.2521
MA	-10.2521
خط	-10.2521
▁أية	-10.2524
Can	-10.2526
▁external	-10.2527
pcs	-10.2533
45	-10.254
▁gift	-10.254
OS	-10.2542
▁الأجزاء	-10.2543
▁early	-10.2547
sale	-10.2548
▁خطأ	-10.2549
▁المع	-10.2563
▁cutting	-10.2564
ring	-10.2566
بت	-10.2575
ware	-10.2578
▁strict	-10.258
▁حر	-10.2582
▁instructions	-10.2584
▁الزجاج	-10.259
جد	-10.259
▁Safety	-10.2604
But	-10.2609
19	-10.2611
▁النوم	-10.2614
▁حركة	-10.2623
▁Fa	-10.2625
▁Trading	-10.2625
▁الحمل	-10.2627
▁running	-10.2627
▁اقرأ	-10.2627
▁التقليدية	-10.2627
▁cash	-10.2637
▁رجل	-10.2638
▁البلاد	-10.2641
▁التخزين	-10.2641
▁كندا	-10.2644
▁الودائع	-10.2645
▁فئة	-10.2651
box	-10.2653
▁نستخدم	-10.2653
يجب	-10.2656
▁ط	-10.2657
لات	-10.2661
▁الآ	-10.2669
▁دائماً	-10.2672
▁اليابان	-10.2673
▁called	-10.268
▁المؤسسات	-10.2681
ig	-10.2687
gi	-10.2694
▁advantages	-10.2695
خر	-10.2695
▁فبراير	-10.2698
▁الرسمية	-10.27
~	-10.2702
▁Am	-10.2703
▁توجيه	-10.2704
بين	-10.2708
▁difficult	-10.2712
▁entire	-10.2712
▁innovation	-10.2713
▁الإعلان	-10.2715
▁الرجال	-10.2718
▁أمام	-10.272
▁cars	-10.2724
دا	-10.2724
▁Da	-10.2727
gen	-10.2731
▁تواصل	-10.2732
▁المحددة	-10.2732
si	-10.2733
▁remove	-10.2736
▁technologies	-10.2737
▁friendly	-10.2737
▁reports	-10.2738
▁الأسود	-10.274
▁Available	-10.2745
سا	-10.2746
▁يؤدي	-10.2746
02	-10.2749
▁فريدة	-10.2754
▁limit	-10.2754
AS	-10.2758
val	-10.2759
يان	-10.2761
▁بسيط	-10.2764
▁نمط	-10.2764
ee	-10.2765
ions	-10.2765
▁بنجاح	-10.2768
كي	-10.2769
▁نوفمبر	-10.2777
▁manual	-10.2777
ash	-10.278
▁Two	-10.2781
▁handle	-10.2782
▁selected	-10.2785
▁رفع	-10.2785
▁المبلغ	-10.2786
▁port	-10.2787
▁قرار	-10.2787
TH	-10.2788
▁يونيو	-10.279
رب	-10.2794
▁document	-10.2798
▁سجل	-10.2799
▁نصف	-10.2801
▁Con	-10.2802
▁sustainable	-10.2802
رج	-10.2802
▁البيئية	-10.2803
▁الجانب	-10.2805
▁تداول	-10.2808
▁درجات	-10.2812
▁تت	-10.2818
tic	-10.2822
▁connection	-10.2826
▁الذهاب	-10.2827
▁طباعة	-10.2833
▁expect	-10.2835
▁تستطيع	-10.2837
▁practice	-10.2838
▁انت	-10.2839
ou	-10.2843
▁promote	-10.2844
▁مرحلة	-10.2844
▁الشمالية	-10.2847
▁محتوى	-10.2851
▁مصممة	-10.2857
ki	-10.2858
▁completely	-10.2858
▁saving	-10.2861
ong	-10.2863
▁المتوسط	-10.2864
▁1-	-10.2865
▁للوصول	-10.287
▁المدن	-10.2873
▁Guide	-10.2876
SS	-10.2876
فق	-10.2877
▁ري	-10.2878
▁الطويل	-10.2879
▁أطول	-10.2879
دعم	-10.288
▁الأقصى	-10.288
▁satisfaction	-10.288
▁نجاح	-10.288
tech	-10.2892
ng	-10.2893
▁submit	-10.2893
▁الأمريكي	-10.2897
▁House	-10.2898
▁seconds	-10.2899
ative	-10.29
▁worth	-10.2901
▁المجالات	-10.2901
▁favorite	-10.2904
▁الثالث	-10.2904
▁engineers	-10.2906
▁"1)	-10.2907
▁عالي	-10.2907
▁مثالي	-10.2908
▁strategy	-10.2913
▁lives	-10.2915
▁quote	-10.2915
Your	-10.2916
▁الموسيقى	-10.2916
▁updates	-10.2917
cu	-10.292
▁allowed	-10.2923
▁تنتج	-10.2928
▁لدعم	-10.293
▁Registration	-10.2931
▁Technical	-10.2936
▁مصنوعة	-10.2937
Com	-10.2938
▁Islamic	-10.2939
▁القرار	-10.294
▁الموجودة	-10.2942
▁finished	-10.2942
▁Financial	-10.2944
▁Access	-10.2949
More	-10.295
▁applicable	-10.2951
▁booking	-10.2951
▁مشاهدة	-10.2953
ham	-10.2954
▁Public	-10.2954
▁اللجنة	-10.2954
▁الذكية	-10.2959
▁annual	-10.2961
ron	-10.2968
fi	-10.2973
▁destination	-10.2976
▁وهناك	-10.2979
sk	-10.2981
▁speak	-10.2988
▁لأ	-10.2989
pro	-10.299
De	-10.2994
▁Live	-10.3002
▁يتطلب	-10.3003
▁famous	-10.3005
▁العمليات	-10.3011
▁متوسط	-10.3018
▁المتطلبات	-10.302
▁mainly	-10.3021
▁السيطرة	-10.3023
▁Payment	-10.3023
▁domestic	-10.3027
▁الضروري	-10.3027
AN	-10.3029
use	-10.303
▁للحفاظ	-10.3031
ev	-10.3033
pl	-10.3035
▁volume	-10.3036
▁suggestions	-10.3037
info	-10.304
▁approved	-10.3042
▁3-5	-10.3042
He	-10.3045
▁factors	-10.3053
▁Iraq	-10.3055
▁changed	-10.3055
▁spare	-10.3058
▁البداية	-10.3058
▁ز	-10.3063
ix	-10.3064
▁o	-10.307
▁لذا	-10.3072
▁waste	-10.3073
ov	-10.3073
▁"3)	-10.3077
▁نرسل	-10.3077
▁قواعد	-10.308
▁His	-10.3083
iv	-10.3084
▁status	-10.3084
▁دراسة	-10.3086
ay	-10.3086
▁للبيئة	-10.3088
▁عطلة	-10.3089
LE	-10.309
▁أهداف	-10.3093
▁حصلت	-10.3095
AT	-10.3096
▁recent	-10.3098
▁المؤسسة	-10.3098
▁flow	-10.3101
هدف	-10.3105
▁الإجراءات	-10.3105
▁certification	-10.3112
▁Lost	-10.3117
▁Main	-10.3119
▁كو	-10.312
▁حفظ	-10.312
▁وسهلة	-10.3122
▁Great	-10.3122
▁الملف	-10.3124
▁brands	-10.3125
▁Need	-10.3126
▁along	-10.3127
▁العينات	-10.313
ينغ	-10.313
▁Central	-10.3132
▁نتيجة	-10.3133
▁Protection	-10.3134
اتك	-10.3134
▁وتقديم	-10.3135
الي	-10.3139
▁حدث	-10.314
▁علاقة	-10.3148
بان	-10.3148
CO	-10.3149
▁season	-10.3154
▁مست	-10.3163
▁Enjoy	-10.3163
▁domain	-10.3163
▁سبب	-10.3164
▁الفولاذ	-10.3165
▁gives	-10.3165
▁stage	-10.3166
▁البعض	-10.3168
▁البطارية	-10.3173
▁مكافحة	-10.3182
▁أريد	-10.3182
▁offering	-10.3185
▁وتوفير	-10.3187
ائية	-10.3187
▁disease	-10.3189
▁industries	-10.3189
▁Only	-10.3191
▁القديمة	-10.3193
▁مساعدتك	-10.3195
▁تساعدك	-10.3205
▁physical	-10.3207
▁flexible	-10.3209
▁Board	-10.3209
ding	-10.321
ظهر	-10.3215
▁Gold	-10.3215
▁المنزلية	-10.3218
را	-10.322
▁الطوارئ	-10.3222
▁دائم	-10.3224
وري	-10.3226
55	-10.3234
▁منا	-10.3235
▁المشورة	-10.3238
▁wait	-10.3238
▁الأمم	-10.3244
Be	-10.3244
▁صوت	-10.3244
▁carton	-10.3245
▁coming	-10.3245
▁أصبح	-10.3247
لت	-10.325
▁المرضى	-10.3251
▁للطفل	-10.3253
▁Spain	-10.3254
▁Rating	-10.3254
▁fresh	-10.3257
▁height	-10.3257
▁friend	-10.3258
▁لإ	-10.3261
▁إنها	-10.3262
▁EN	-10.3263
▁الجنوبية	-10.3264
▁تتوفر	-10.3264
▁يا	-10.3268
▁وصف	-10.3269
▁mission	-10.327
▁Euro	-10.3271
▁links	-10.3274
▁ه	-10.3275
▁"8.	-10.3276
▁الأسرة	-10.3279
▁functions	-10.3281
▁أرسل	-10.3285
▁engine	-10.3287
▁cleaning	-10.3288
▁الجلد	-10.3289
▁تذكرة	-10.3289
▁reviews	-10.3289
▁800	-10.3292
▁موقف	-10.3292
▁durable	-10.3294
▁Twitter	-10.3296
▁Foundation	-10.3306
▁تتطلب	-10.3307
▁People	-10.3308
▁simply	-10.3315
▁الأردن	-10.3317
▁الحال	-10.3322
▁Provide	-10.3323
▁Riyadh	-10.3323
▁monthly	-10.3325
▁36	-10.3328
غير	-10.3329
▁الفرق	-10.3333
▁force	-10.3336
▁مناطق	-10.3336
▁مفتاح	-10.3338
▁الخطوات	-10.3338
▁produced	-10.3339
▁requests	-10.3343
▁جدول	-10.3352
▁الذهب	-10.3352
▁images	-10.3353
▁implementation	-10.3356
eg	-10.3359
▁المدير	-10.336
▁الأم	-10.3363
▁الآخر	-10.3364
اث	-10.3368
▁علينا	-10.3369
▁الاستفادة	-10.3376
▁completed	-10.3378
▁مجالات	-10.3378
▁bad	-10.3381
▁remember	-10.3384
▁laws	-10.3387
▁سوى	-10.3388
▁تعاون	-10.3388
▁سنقوم	-10.3393
▁ten	-10.3393
▁2007	-10.3394
▁إطلاق	-10.3397
▁الجو	-10.3402
▁ground	-10.3405
▁numbers	-10.3411
▁container	-10.3414
▁planning	-10.3415
▁التصدير	-10.3417
▁فيلم	-10.3418
▁Enter	-10.3419
انية	-10.3424
▁Size	-10.3426
▁لاستخدام	-10.3431
▁ترحيب	-10.3438
▁الطبيب	-10.3443
▁stability	-10.3444
▁أبيض	-10.3444
▁drug	-10.3447
▁بو	-10.3449
▁articles	-10.3449
كا	-10.3451
▁political	-10.3451
IL	-10.3465
▁Wi	-10.3466
▁inter	-10.3466
▁shop	-10.3472
▁بدقة	-10.3476
▁الخيار	-10.3478
▁ترسل	-10.3478
▁journey	-10.3483
Color	-10.3484
28	-10.3488
75	-10.3488
▁shows	-10.349
▁الذاتية	-10.349
▁صحة	-10.3496
▁Egyptian	-10.3498
▁القوة	-10.3498
▁مراكز	-10.3499
▁ID	-10.3501
▁cities	-10.3504
▁الارتباط	-10.3504
▁Smart	-10.3504
▁cultural	-10.3506
▁طن	-10.3507
35	-10.3508
▁صيانة	-10.3509
▁complex	-10.3511
▁ويتم	-10.3512
▁تأمين	-10.3513
سو	-10.3517
بير	-10.3518
▁Dhabi	-10.3523
▁individuals	-10.3523
▁مبيعات	-10.3527
▁Report	-10.353
▁prior	-10.3533
▁الظروف	-10.3533
▁commitment	-10.3534
▁previous	-10.3537
صور	-10.3538
▁الرسم	-10.3538
tu	-10.3539
قي	-10.3541
▁الكفاءة	-10.3546
ليس	-10.3547
▁شريك	-10.3548
زل	-10.3548
▁August	-10.3548
ens	-10.3553
▁Equipment	-10.3553
▁essential	-10.3553
دو	-10.3556
▁للمساعدة	-10.3557
▁خطوط	-10.3559
▁Marketing	-10.356
▁tested	-10.3562
▁نفعل	-10.3566
▁المحدودة	-10.3566
▁guests	-10.3569
▁موضع	-10.3577
▁Add	-10.3578
▁المطلوب	-10.3578
▁تبدو	-10.3584
▁يضمن	-10.3585
▁ميزة	-10.3587
عود	-10.3588
▁King	-10.3589
▁وبعد	-10.3593
ME	-10.3594
▁وكان	-10.36
▁المرحلة	-10.3611
شعر	-10.3614
▁وتحسين	-10.3616
▁الموردين	-10.3618
gov	-10.3621
▁categories	-10.3623
▁وصول	-10.3624
▁Ka	-10.3624
▁Love	-10.3632
▁الرياض	-10.3632
▁exceed	-10.3634
▁hospital	-10.3634
▁أسود	-10.3636
▁إجمالي	-10.3637
▁عملاء	-10.3638
▁finish	-10.3638
▁approach	-10.364
▁RE	-10.3641
air	-10.3642
▁cookies	-10.3643
5%	-10.3643
▁مس	-10.3646
▁progress	-10.3652
▁عديدة	-10.3653
▁mean	-10.3654
▁موثوق	-10.3656
▁وزن	-10.3659
▁super	-10.3661
▁الصوت	-10.3662
▁accepted	-10.3662
▁دعونا	-10.3664
▁reading	-10.3667
chi	-10.3667
han	-10.367
▁Thanks	-10.3672
▁West	-10.3674
▁smart	-10.3674
▁ألا	-10.3674
▁challenges	-10.3674
▁output	-10.3675
▁inform	-10.3677
▁Super	-10.3679
▁eyes	-10.3687
▁العالي	-10.3689
▁فقدان	-10.3691
▁economy	-10.3694
ورد	-10.3695
▁independent	-10.3698
▁نكون	-10.3698
▁Ta	-10.3701
▁hear	-10.3701
▁نمو	-10.3702
▁الليل	-10.3707
az	-10.3708
▁مُ	-10.3708
▁cards	-10.3708
بدأ	-10.3709
▁أمريكي	-10.3712
▁سا	-10.3714
▁km	-10.3717
▁listed	-10.3717
▁زر	-10.3718
▁continuous	-10.3718
شار	-10.3722
▁fabric	-10.3723
▁تشكيل	-10.3724
كيف	-10.3725
▁كتابة	-10.3728
زي	-10.3732
▁host	-10.3733
▁USB	-10.3736
▁الأجل	-10.3736
▁Ni	-10.3744
▁seen	-10.3745
▁400	-10.3745
▁المحرك	-10.3747
▁regulations	-10.3749
▁Conference	-10.375
▁تكن	-10.3751
▁bit	-10.3753
32	-10.3755
▁War	-10.3755
▁ممارسة	-10.3756
▁والتطوير	-10.3758
ji	-10.3758
▁stores	-10.3759
▁Lo	-10.376
عند	-10.376
▁الورق	-10.3762
▁di	-10.3763
▁participate	-10.3764
▁taste	-10.3766
▁experiences	-10.3768
▁وأفضل	-10.3771
▁Watch	-10.3775
▁Also	-10.3776
▁موضوع	-10.3778
▁ورشة	-10.3779
▁الصفحات	-10.3786
▁بهذه	-10.3789
▁بالم	-10.3804
ung	-10.3805
▁علامات	-10.3806
▁استفسار	-10.3806
▁الجيدة	-10.3809
▁الحرة	-10.3811
▁noise	-10.3812
بس	-10.3817
هلم	-10.3818
▁اس	-10.3822
mon	-10.383
ادي	-10.3831
▁والمواد	-10.3832
علم	-10.3841
▁عميل	-10.3842
▁منح	-10.3842
An	-10.3843
▁الوضع	-10.3844
▁توزيع	-10.3844
▁YOU	-10.3845
▁فرنسا	-10.3846
▁spread	-10.3847
▁الاقتصادي	-10.385
SA	-10.3851
EL	-10.3852
▁sound	-10.3852
▁switch	-10.3865
▁جدًا	-10.3871
▁المباشر	-10.3872
▁student	-10.3872
أكثر	-10.3874
▁anyone	-10.3875
▁eye	-10.3876
▁bar	-10.3876
وقد	-10.3884
▁قلب	-10.3886
▁تشعر	-10.3886
▁arrange	-10.3887
كن	-10.3888
▁Join	-10.3891
▁stand	-10.3893
▁خمس	-10.3898
▁inquiries	-10.3899
▁ألوان	-10.39
▁London	-10.3904
based	-10.3907
▁خطر	-10.3909
▁woman	-10.3909
▁اللعب	-10.3911
▁ألف	-10.3912
ادة	-10.3913
▁Production	-10.3915
▁comment	-10.3916
▁regional	-10.3917
عرف	-10.3918
▁eat	-10.3918
▁Qu	-10.3918
▁تقع	-10.3919
TS	-10.3919
▁York	-10.392
her	-10.3925
ice	-10.3927
▁مح	-10.393
▁emergency	-10.3933
▁الصناعات	-10.394
▁يزيد	-10.3943
▁العلاقات	-10.3944
▁نعرف	-10.3945
▁Create	-10.3946
▁confirmed	-10.3946
▁Syrian	-10.3948
▁connect	-10.3949
TA	-10.3949
؛"	-10.3951
▁بطاقات	-10.3951
اتنا	-10.3954
▁word	-10.3956
ler	-10.3961
▁بعناية	-10.3961
اي	-10.3966
fe	-10.3982
▁budget	-10.3982
▁تمويل	-10.3984
▁الأصول	-10.3985
▁visitors	-10.3986
▁الأحداث	-10.3987
▁Sea	-10.3987
▁العراق	-10.3988
let	-10.399
▁قريبا	-10.3991
▁agreement	-10.3991
▁فعالية	-10.3996
▁نتطلع	-10.3998
لف	-10.3999
▁Language	-10.4002
▁التعليقات	-10.4005
▁satisfied	-10.4009
▁الهدف	-10.4012
▁distribution	-10.4013
▁تحدث	-10.4018
▁أولاً	-10.4018
▁آمن	-10.4019
▁creating	-10.4024
▁Organization	-10.4024
▁pass	-10.4025
200	-10.4026
▁علاقات	-10.4027
▁تدفع	-10.403
▁يبدأ	-10.403
▁تأشيرة	-10.4035
▁الاهتمام	-10.4041
▁فريقنا	-10.4053
▁drawing	-10.4056
▁سوريا	-10.4056
▁walk	-10.4059
▁مادة	-10.4059
▁الي	-10.406
▁للقيام	-10.4061
board	-10.4062
▁competition	-10.4066
oo	-10.4067
!!	-10.4067
▁2005	-10.4069
▁Know	-10.407
▁Thursday	-10.4071
▁fall	-10.4074
▁Key	-10.4074
▁العينة	-10.4084
▁المح	-10.4088
▁حدد	-10.409
▁سعيد	-10.409
▁chance	-10.4096
▁Forum	-10.4096
▁تعد	-10.4102
su	-10.4105
▁Hospital	-10.4106
▁refer	-10.4108
▁الغ	-10.4109
▁Iran	-10.4111
▁محترف	-10.4117
▁exhibition	-10.4117
جم	-10.4119
▁وجدت	-10.412
▁خطوات	-10.4126
نظر	-10.4127
قال	-10.4129
▁won	-10.4131
▁فعال	-10.4134
▁contains	-10.4134
▁Cloud	-10.4134
ments	-10.4135
▁Non	-10.4135
ارة	-10.4137
▁الجنسية	-10.4141
▁دقة	-10.4142
▁المشتركة	-10.415
▁workshop	-10.4151
▁العقارات	-10.4152
▁Category	-10.4153
work	-10.4153
▁احتياجاتك	-10.4154
▁الصف	-10.4158
▁successfully	-10.416
▁Institute	-10.4161
هما	-10.4164
tor	-10.4165
▁يقول	-10.417
حلول	-10.4171
▁courses	-10.4171
▁اليابانية	-10.4172
▁ذو	-10.4173
▁أدخل	-10.4173
TC	-10.4174
▁الكلمات	-10.4177
▁lighting	-10.4179
▁معكم	-10.418
▁المناخ	-10.4183
▁increased	-10.4186
▁growing	-10.4187
▁المالي	-10.4188
▁hold	-10.4189
▁Which	-10.4192
▁الصانع	-10.4195
▁3-	-10.4196
▁Art	-10.42
▁مليار	-10.4202
▁powerful	-10.4203
▁abroad	-10.4204
▁quite	-10.4204
▁الاست	-10.421
▁تقليل	-10.421
▁بر	-10.4211
▁طلبات	-10.4212
▁الغذاء	-10.4213
▁2-	-10.4215
▁أسهل	-10.4217
▁Sunday	-10.4217
▁chat	-10.4222
▁نماذج	-10.4223
▁Reset	-10.4227
▁بلا	-10.4232
▁الجامعة	-10.4232
▁وإدارة	-10.4235
▁furniture	-10.4237
▁الأخضر	-10.4238
▁death	-10.4247
تح	-10.425
▁En	-10.4254
9001	-10.4257
▁HD	-10.4259
▁مايو	-10.4259
▁نفسها	-10.4264
tan	-10.4266
مكان	-10.4267
▁هيئة	-10.4268
▁للأ	-10.4268
▁authorities	-10.4268
▁توافق	-10.4274
▁الموافقة	-10.4277
وع	-10.4281
▁250	-10.4292
▁spend	-10.4292
▁dress	-10.4293
ميل	-10.4294
CE	-10.4296
▁Phone	-10.4298
▁خمسة	-10.43
RI	-10.4309
▁NO	-10.431
صف	-10.4317
▁Events	-10.4318
mi	-10.4321
▁doesn	-10.4322
iz	-10.4325
▁mode	-10.4327
▁electrical	-10.4331
مت	-10.4333
كت	-10.4336
▁requires	-10.4337
▁اكتشف	-10.4339
عا	-10.4339
▁Friday	-10.4341
▁ينطبق	-10.4344
▁delivered	-10.4345
▁However	-10.4346
▁ترى	-10.435
▁replace	-10.4354
▁النهائية	-10.4356
af	-10.4357
▁ضبط	-10.4357
den	-10.436
lan	-10.4374
حت	-10.4375
▁1:	-10.4376
▁families	-10.4376
▁Many	-10.4376
▁waiting	-10.4376
رق	-10.4384
▁طرف	-10.4385
▁Does	-10.4395
▁ظروف	-10.4398
▁مطلوب	-10.4401
▁المصدر	-10.4401
▁وحدات	-10.4402
▁الأوراق	-10.4402
▁الكربون	-10.4403
pt	-10.4403
▁soft	-10.4406
▁الأساسي	-10.4407
▁reputation	-10.4409
عن	-10.4411
▁ملابس	-10.4411
ug	-10.4412
نغ	-10.4413
bu	-10.4415
جين	-10.4417
▁الكمية	-10.442
▁pick	-10.4421
tri	-10.4422
صح	-10.4422
▁مخصص	-10.4427
▁San	-10.4427
▁asked	-10.4427
دن	-10.4431
▁مواصفات	-10.4431
▁"●	-10.4435
▁translation	-10.4442
▁estate	-10.4442
▁البقاء	-10.4442
▁العربة	-10.4442
بد	-10.4445
▁مجتمع	-10.4445
▁Legal	-10.4447
ستر	-10.4451
▁Small	-10.4452
act	-10.4453
▁funds	-10.4453
▁cable	-10.4461
يض	-10.4464
ومع	-10.4464
▁55	-10.4464
$	-10.4465
Ltd	-10.4465
▁aid	-10.4465
▁الأسنان	-10.4466
▁العلمي	-10.4468
TO	-10.4469
▁القلب	-10.4471
▁الخطوة	-10.4473
▁pieces	-10.4473
▁Auto	-10.4476
▁لطلب	-10.4477
▁المسؤولية	-10.4482
set	-10.4485
ual	-10.4485
▁الخبراء	-10.4486
دع	-10.4495
▁الوزراء	-10.4496
with	-10.4498
▁expected	-10.45
▁أطفال	-10.45
▁Working	-10.4502
▁المجانية	-10.4508
od	-10.4508
▁المهارات	-10.4511
سن	-10.4512
▁الأفراد	-10.4512
▁جميل	-10.4514
▁5)	-10.4519
▁الصرف	-10.4519
▁dream	-10.452
mer	-10.452
▁VPS	-10.4521
▁السؤال	-10.4522
▁2006	-10.4526
▁فصل	-10.4526
▁piece	-10.4527
▁استمتع	-10.4528
▁(1	-10.4529
▁واضحة	-10.4535
▁Discover	-10.4536
▁التحقيق	-10.4537
▁وسيلة	-10.4541
▁بزيارة	-10.4545
▁Want	-10.4546
▁Per	-10.4547
▁سهولة	-10.455
▁الطبي	-10.4551
▁Date	-10.4551
▁بالقرب	-10.4553
▁covered	-10.4554
▁gold	-10.4555
▁pages	-10.4556
▁تناسب	-10.4556
▁توريد	-10.4557
ition	-10.4557
my	-10.456
▁الترجمة	-10.456
Mo	-10.456
=	-10.4564
▁بدأت	-10.4565
ble	-10.457
▁تعتبر	-10.4571
▁traffic	-10.4573
▁carried	-10.4574
▁elements	-10.4576
ical	-10.4581
▁لعب	-10.4582
▁auto	-10.4583
over	-10.4583
كون	-10.4588
▁Share	-10.4591
AM	-10.4591
▁بريدك	-10.4593
▁Plan	-10.4594
▁kitchen	-10.4596
▁النقاط	-10.46
▁Inter	-10.4601
▁حدود	-10.4608
▁war	-10.4608
▁توقعات	-10.461
▁الدراسة	-10.4613
ارات	-10.4613
▁منع	-10.4618
▁عربة	-10.4618
please	-10.4621
▁studies	-10.4623
▁منشور	-10.4625
▁gain	-10.4628
▁billion	-10.4631
▁الد	-10.4632
نق	-10.4635
▁Cairo	-10.4636
يح	-10.4638
▁القطع	-10.464
▁towards	-10.4648
▁جي	-10.4649
ET	-10.4649
▁importance	-10.4652
65	-10.4656
▁أسفل	-10.4658
كان	-10.4662
▁آ	-10.4662
▁الداخل	-10.4663
▁begin	-10.4666
▁واضح	-10.4669
▁Then	-10.4669
▁المست	-10.4671
ama	-10.4672
هي	-10.4674
year	-10.4676
▁الاقتصاد	-10.4676
▁ابن	-10.4676
▁فرع	-10.4677
▁فا	-10.4677
▁h	-10.4678
بع	-10.4679
▁البحرية	-10.4679
▁drop	-10.468
▁Hot	-10.4684
▁Authority	-10.4686
▁grade	-10.4687
▁Anti	-10.4689
قام	-10.469
▁coffee	-10.469
▁Material	-10.4697
رن	-10.4698
sta	-10.4699
▁Oil	-10.4699
▁لزيارة	-10.4701
▁التكاليف	-10.4702
▁educational	-10.4703
▁قليلا	-10.4705
▁Se	-10.4705
▁practical	-10.4707
▁exclusive	-10.4713
▁license	-10.4713
▁متوفر	-10.4715
▁أستراليا	-10.4716
▁efforts	-10.472
OR	-10.472
▁"4	-10.4721
رش	-10.4721
▁معيار	-10.4727
▁مستقرة	-10.4735
▁إشعار	-10.4735
▁تلقائيا	-10.4739
مي	-10.474
فريق	-10.4741
▁الراحة	-10.4742
▁break	-10.4742
▁تلبي	-10.4743
▁Commercial	-10.4743
سون	-10.4744
جاب	-10.4744
UN	-10.4746
▁الط	-10.4747
▁الابتكار	-10.4748
است	-10.475
▁policies	-10.4752
▁ارسال	-10.4754
▁mass	-10.4755
▁وخدمات	-10.4755
▁الأمان	-10.4763
▁replacement	-10.4767
▁closed	-10.4768
▁Application	-10.4772
▁يوليو	-10.4773
▁رسائل	-10.4773
▁الوقود	-10.4775
▁جنب	-10.4776
▁came	-10.4777
▁prepare	-10.4777
▁Family	-10.4778
▁Follow	-10.4779
▁وحماية	-10.478
ائل	-10.478
▁Photo	-10.478
▁written	-10.478
▁faster	-10.4782
▁Part	-10.4783
▁climate	-10.4786
▁المدارس	-10.479
▁release	-10.4792
▁PE	-10.4793
اض	-10.4795
▁career	-10.4802
▁label	-10.4802
▁Supply	-10.4807
CH	-10.4807
▁President	-10.4808
▁Mu	-10.4814
▁engineering	-10.4816
▁المؤتمر	-10.482
▁محدودة	-10.482
▁المصرفية	-10.4823
▁perform	-10.4824
اسم	-10.4825
▁effectively	-10.4826
wi	-10.483
▁nothing	-10.4832
▁مهندس	-10.4832
▁وخاصة	-10.4833
▁Star	-10.4836
05	-10.4837
▁Wholesale	-10.4839
uff	-10.484
▁Men	-10.4844
According	-10.4849
▁installed	-10.4853
▁للجميع	-10.4855
▁Dis	-10.4858
زين	-10.4858
▁"5	-10.4861
▁لطيف	-10.4863
▁Microsoft	-10.4864
▁Code	-10.4868
ولكن	-10.4872
▁else	-10.4877
▁Association	-10.4877
▁entry	-10.4878
-1	-10.4878
▁involved	-10.4879
▁الذاتي	-10.4881
▁بينما	-10.4883
▁شعار	-10.4884
ari	-10.4886
▁animals	-10.4887
▁wire	-10.4889
▁لتكون	-10.489
▁treat	-10.4893
▁الفريق	-10.4895
جن	-10.4895
▁رسم	-10.4896
▁الميزات	-10.4898
▁schools	-10.4898
نج	-10.4898
▁وجميع	-10.4901
ثر	-10.4904
▁الكل	-10.4904
▁Sha	-10.4905
From	-10.4907
▁الخميس	-10.4907
رم	-10.4911
▁للصدأ	-10.4912
ند	-10.4914
▁حقيبة	-10.4916
▁professionals	-10.4923
▁exactly	-10.4927
ON	-10.4927
▁الكهرباء	-10.4927
▁itself	-10.4928
▁المزايا	-10.4931
▁applies	-10.4935
▁monitoring	-10.4941
▁الملك	-10.4945
▁concept	-10.4946
طريقة	-10.4947
▁Fund	-10.4947
▁Set	-10.4947
▁صحية	-10.4948
▁يجوز	-10.4948
ياً	-10.4949
▁carefully	-10.495
▁الحزمة	-10.495
▁Server	-10.4952
▁amazing	-10.4958
▁integrated	-10.4961
▁businesses	-10.4962
26	-10.4962
Sales	-10.4965
▁الجمعية	-10.4965
27	-10.4967
▁الأزرق	-10.4971
يّ	-10.4977
▁looks	-10.4977
▁مد	-10.4978
▁kids	-10.4979
▁السلام	-10.498
▁Form	-10.4983
▁نشاط	-10.4984
fo	-10.4985
▁IS	-10.499
▁وكل	-10.4992
توافق	-10.4992
▁Dollar	-10.4992
▁Hotels	-10.4994
▁والمنتجات	-10.4994
رز	-10.4996
▁producing	-10.4997
صبح	-10.4999
▁التركية	-10.5001
▁Out	-10.5003
▁advertising	-10.5004
▁للشركات	-10.5004
▁السياسة	-10.5004
▁للتعديل	-10.5009
▁مهارات	-10.501
▁عالمية	-10.5013
▁والحصول	-10.5013
▁lose	-10.5013
▁remain	-10.5015
▁Oman	-10.5021
▁بت	-10.5022
▁ببساطة	-10.5025
▁comfort	-10.5025
▁الخشب	-10.5026
لق	-10.5026
▁receipt	-10.5027
PE	-10.5029
▁Ca	-10.5031
▁sp	-10.5032
ld	-10.5032
ick	-10.5033
دم	-10.5034
▁والس	-10.5035
▁يدعم	-10.5035
▁understanding	-10.5035
▁بالضبط	-10.5042
▁10.	-10.5042
▁منهم	-10.5046
▁MO	-10.5046
▁الفن	-10.5047
▁بالرد	-10.5047
▁حقيقية	-10.5048
▁أبريل	-10.5052
يتك	-10.5052
▁fix	-10.5058
oc	-10.5062
▁إيطاليا	-10.5062
▁تواجه	-10.5065
▁Experience	-10.5069
جعل	-10.5072
خبر	-10.5072
23	-10.5072
▁Sex	-10.5073
▁driving	-10.5073
▁freight	-10.5073
▁Country	-10.5074
▁girl	-10.5076
▁المصنعين	-10.5078
▁Minister	-10.5081
tal	-10.5086
اقة	-10.509
ren	-10.509
▁تزويد	-10.5094
▁sun	-10.5095
▁Sales	-10.5096
▁match	-10.5098
▁SA	-10.5103
تش	-10.511
▁sectors	-10.5111
Now	-10.5116
▁DHL	-10.5118
▁الصعب	-10.5119
▁morning	-10.512
▁الكشف	-10.5121
▁أل	-10.5121
ving	-10.5125
▁beauty	-10.5126
▁bags	-10.5131
▁enable	-10.5133
▁الحدث	-10.5139
▁العمال	-10.5141
▁75	-10.5141
China	-10.5141
▁record	-10.5144
TM	-10.5147
ris	-10.5153
▁fuel	-10.5155
▁corporate	-10.5155
▁تنظيف	-10.5157
▁Ti	-10.5158
ونحن	-10.516
33	-10.5161
▁suit	-10.5162
▁انظر	-10.5167
▁Should	-10.5169
▁المنظمات	-10.5171
▁sleep	-10.5171
▁properties	-10.5179
▁panel	-10.5179
ology	-10.518
بط	-10.5181
new	-10.5182
▁بعيدا	-10.5182
▁Ne	-10.5182
رين	-10.5188
cing	-10.5189
sc	-10.519
▁heavy	-10.5191
▁الدواء	-10.5191
▁تعليمات	-10.5193
▁الدقة	-10.5195
▁الإجابة	-10.5196
▁Sale	-10.5198
▁Archives	-10.5204
▁الحدود	-10.5205
▁ينشر	-10.5207
▁قيد	-10.5213
▁فني	-10.5215
▁ALL	-10.5216
▁DE	-10.5217
▁الجمعة	-10.5217
حسن	-10.5222
▁opinion	-10.5223
▁الواردة	-10.5224
▁متعدد	-10.5225
IP	-10.5226
▁movement	-10.5226
▁worry	-10.5226
▁writing	-10.5226
▁referred	-10.5226
▁mechanical	-10.5235
▁expertise	-10.5238
▁blog	-10.5239
29	-10.524
وح	-10.5243
▁participants	-10.5244
▁creative	-10.525
▁quotation	-10.525
▁lost	-10.525
▁joint	-10.5254
وه	-10.5255
طول	-10.5257
▁مستخدم	-10.5259
غر	-10.5263
▁إغلاق	-10.5264
ger	-10.5265
▁تغطي	-10.5266
che	-10.5266
▁معقول	-10.5268
low	-10.527
▁العادي	-10.5271
▁المقاوم	-10.5271
▁الأسباب	-10.5274
▁Client	-10.5274
▁refund	-10.5277
▁university	-10.5278
▁النهاية	-10.5279
VI	-10.528
▁MP	-10.5282
jo	-10.529
▁pain	-10.5291
▁لعام	-10.5292
▁70%	-10.5292
ct	-10.5294
▁نقبل	-10.5294
▁بمجرد	-10.5295
عط	-10.5295
One	-10.5296
▁wrong	-10.5297
▁qualified	-10.5297
▁الأهداف	-10.5303
bit	-10.5304
▁hosting	-10.5313
▁Ja	-10.5314
form	-10.5316
▁سو	-10.5318
▁Sweden	-10.5321
▁تضمن	-10.5323
حتى	-10.5327
▁الاطلاع	-10.5331
▁except	-10.5333
▁المُ	-10.5333
car	-10.5341
▁regions	-10.5342
par	-10.5343
حضر	-10.5344
▁strategic	-10.5345
▁SSL	-10.5348
▁يكفي	-10.5357
Co	-10.5358
▁principles	-10.5358
▁المنصوص	-10.5358
▁والب	-10.5359
▁والع	-10.5364
▁باب	-10.5366
▁التجميل	-10.537
▁schedule	-10.5371
▁فهي	-10.5372
لين	-10.5372
اخ	-10.5374
وات	-10.5375
شد	-10.5378
▁appear	-10.5379
not	-10.5382
▁conduct	-10.5385
اة	-10.5388
▁تش	-10.5389
▁Her	-10.5393
▁لجنة	-10.5396
▁مثيرة	-10.5397
▁Israel	-10.5397
▁خريطة	-10.5397
doc	-10.5398
▁provisions	-10.5398
دفع	-10.5399
▁بحرية	-10.54
▁"·	-10.5403
▁أشخاص	-10.5404
▁pack	-10.5404
▁FREE	-10.5404
▁وسلم	-10.5406
تد	-10.5409
mar	-10.541
▁مفتوحة	-10.5413
part	-10.5416
▁equipped	-10.5417
EM	-10.5419
زم	-10.542
قول	-10.5421
▁تذكر	-10.5422
▁processes	-10.5424
دين	-10.5425
شا	-10.5428
▁Order	-10.5431
▁selling	-10.5431
تحدث	-10.5431
▁practices	-10.5434
▁متابعة	-10.5446
▁exported	-10.5446
▁كنا	-10.5447
▁بتقديم	-10.5447
▁تقدير	-10.5451
▁يعرف	-10.5452
▁"6	-10.5452
▁se	-10.5452
▁بإ	-10.5454
▁enhance	-10.5454
However	-10.5454
▁الالتزام	-10.5455
▁أماكن	-10.5456
bar	-10.5457
▁الحركة	-10.5461
▁الرياضة	-10.5462
▁buildings	-10.5464
▁Gulf	-10.5466
▁caused	-10.5468
▁يو	-10.5471
▁Local	-10.5473
▁الخارجي	-10.5474
▁error	-10.5475
Pa	-10.5481
NO	-10.5483
به	-10.5483
▁wood	-10.549
▁تن	-10.5493
▁strictly	-10.5498
OM	-10.55
▁offices	-10.5502
▁participation	-10.5502
▁themselves	-10.5502
▁الآثار	-10.5502
▁solar	-10.5506
tur	-10.5506
▁Very	-10.5508
▁channels	-10.5509
▁حب	-10.5509
▁Christmas	-10.5509
▁كي	-10.5514
▁الثقة	-10.5514
▁mother	-10.5515
▁engineer	-10.5515
▁المر	-10.5517
▁الاعتماد	-10.5526
▁قياس	-10.5527
▁target	-10.5528
ze	-10.5528
▁Ha	-10.5529
▁fashion	-10.5531
▁approval	-10.5532
▁المستدامة	-10.5532
▁driver	-10.5532
▁liquid	-10.5533
old	-10.5533
▁الأمراض	-10.5535
▁الآلي	-10.5537
▁الفرص	-10.5538
▁أعوام	-10.5538
▁والخدمة	-10.554
ثان	-10.5542
▁girls	-10.5543
▁instead	-10.5544
الت	-10.5544
▁Palestinian	-10.5545
▁British	-10.5545
▁التخطيط	-10.5546
▁conference	-10.5551
▁أوامر	-10.5551
gar	-10.5552
لام	-10.5553
▁Back	-10.5557
▁answers	-10.5557
▁المخصصة	-10.5561
طور	-10.5561
▁السويد	-10.5562
▁shown	-10.5563
▁behind	-10.5575
▁tips	-10.5575
▁forms	-10.5576
ach	-10.5581
▁الزراعية	-10.5583
▁session	-10.5587
▁satisfy	-10.5587
▁أشرطة	-10.5587
▁الوحيد	-10.5596
▁لإعادة	-10.5597
▁الإتصال	-10.56
ائر	-10.5601
سة	-10.5602
▁لشراء	-10.5606
▁التردد	-10.5606
▁نوعها	-10.5608
▁websites	-10.5609
▁مسجل	-10.5613
مرحبا	-10.5614
▁consultation	-10.5617
▁١	-10.5621
▁لأغراض	-10.5625
▁مياه	-10.5626
▁أفعل	-10.5628
▁بفضل	-10.563
حفظ	-10.5635
LI	-10.5637
▁Review	-10.5639
▁الأعلى	-10.5639
ey	-10.564
▁مصادر	-10.5645
▁Package	-10.5647
▁MA	-10.5651
▁انضم	-10.5653
▁الإضاءة	-10.5654
▁التنظيف	-10.5655
38	-10.5656
▁وسن	-10.5657
رف	-10.566
▁الدكتور	-10.5663
SI	-10.5664
منذ	-10.5668
▁تحكم	-10.5668
▁مراحل	-10.567
▁شركتك	-10.5676
▁التعليمية	-10.5676
▁Paris	-10.5679
▁machinery	-10.5684
ants	-10.5684
ضاف	-10.5685
اذ	-10.5685
ai	-10.5687
▁توصيل	-10.5687
▁الوجه	-10.5689
▁letter	-10.5691
▁تتمكن	-10.5691
بات	-10.5695
▁كيس	-10.5696
▁Ri	-10.5697
▁al	-10.5698
▁تمامًا	-10.5698
▁cheap	-10.5701
▁اذا	-10.5703
Con	-10.5705
▁65	-10.5711
▁رخيصة	-10.5713
#	-10.5714
بال	-10.5716
▁الكر	-10.5716
▁كلا	-10.5717
etc	-10.572
▁أصحاب	-10.572
▁description	-10.5723
▁را	-10.5728
عاد	-10.5732
▁persons	-10.5733
▁transactions	-10.5735
▁تتضمن	-10.5736
▁اتباع	-10.5737
▁1.5	-10.5738
▁التغيير	-10.5747
▁objectives	-10.5748
▁Science	-10.575
ik	-10.5751
▁الشيء	-10.5753
▁frame	-10.5755
باب	-10.5756
▁تعبئة	-10.5757
او	-10.5761
▁المدني	-10.5762
بالنسبة	-10.5765
▁Lu	-10.5767
▁موقعك	-10.5767
▁الجيد	-10.5768
▁السن	-10.5771
▁الحديث	-10.5773
▁يمكنكم	-10.5774
▁مزايا	-10.5774
cl	-10.5777
▁الفرصة	-10.578
▁affect	-10.5782
▁medium	-10.5785
."""	-10.5787
▁زوج	-10.579
▁اكتشاف	-10.5798
▁منخفض	-10.5803
▁Designed	-10.5805
عقد	-10.5805
جة	-10.5806
MS	-10.5806
lip	-10.5808
▁Today	-10.5811
▁الأن	-10.5812
art	-10.5815
▁للتأكد	-10.582
▁Steel	-10.582
▁واستخدام	-10.5821
-20	-10.5822
▁الطب	-10.5824
▁تختلف	-10.5825
95	-10.5827
▁Portal	-10.5828
▁Blog	-10.583
ley	-10.5834
▁أر	-10.5835
دل	-10.5835
▁يشمل	-10.5835
▁يُرجى	-10.5836
▁outdoor	-10.5837
▁electricity	-10.5838
▁5000	-10.5838
ctor	-10.584
اص	-10.5842
▁لتجنب	-10.5842
▁anytime	-10.5843
بيل	-10.5847
▁presence	-10.5848
▁حسابات	-10.585
66	-10.5851
▁Gu	-10.5851
▁الماضية	-10.5853
▁التقنيات	-10.5853
log	-10.5854
▁أنشطة	-10.5855
▁li	-10.5856
▁Videos	-10.5859
▁Pi	-10.586
▁telephone	-10.5861
▁التبريد	-10.5861
▁ball	-10.5862
▁issued	-10.5864
قيم	-10.5866
▁دو	-10.5872
▁الرجل	-10.5872
▁advise	-10.5876
▁labor	-10.5876
▁mo	-10.5877
راب	-10.5878
▁pump	-10.5883
led	-10.5885
تف	-10.5885
▁العليا	-10.5888
▁600	-10.5889
▁Saturday	-10.5892
▁citizens	-10.5893
▁هدية	-10.5893
▁رعاية	-10.5899
AD	-10.5899
AC	-10.5901
▁المعدنية	-10.5907
▁المقالة	-10.5909
▁المخزون	-10.5914
▁تع	-10.5914
▁serious	-10.5918
▁Ac	-10.592
36	-10.5923
▁تختار	-10.5924
▁core	-10.5927
▁parents	-10.5928
▁AM	-10.5933
ker	-10.5936
▁مكونات	-10.5936
▁ممتاز	-10.5936
▁مضى	-10.5937
▁الفردية	-10.5937
▁التطوير	-10.5941
▁الأحد	-10.5942
▁**	-10.595
▁الإصدار	-10.5952
▁وراء	-10.5952
▁أصبحت	-10.5954
▁Daily	-10.596
lar	-10.5961
▁الفيلم	-10.5968
03	-10.5968
ns	-10.5971
▁استراتيجية	-10.5971
▁اليد	-10.5971
rate	-10.5974
▁communicate	-10.5975
▁المريض	-10.5975
▁expert	-10.5979
▁المو	-10.5979
▁معقولة	-10.5979
▁mentioned	-10.5979
▁شاملة	-10.598
▁الطابق	-10.5982
▁Box	-10.5984
▁sources	-10.5985
▁tests	-10.5987
▁reached	-10.5988
▁السيد	-10.5991
fin	-10.5992
▁الأفكار	-10.5994
room	-10.6
▁changing	-10.6
Ex	-10.6001
▁path	-10.6001
▁iOS	-10.6002
▁agents	-10.6002
but	-10.6005
▁أبوظبي	-10.6007
▁2-3	-10.6009
▁Ben	-10.601
قدم	-10.601
▁كرة	-10.6011
▁spring	-10.6014
امي	-10.6014
▁لندن	-10.6015
جاز	-10.6016
▁مقدم	-10.6017
▁القادم	-10.6019
تز	-10.6022
water	-10.6022
▁تغير	-10.6026
▁الفضاء	-10.6026
▁determine	-10.6029
▁campaign	-10.6031
▁المركبات	-10.6032
▁التأثير	-10.6035
▁appointment	-10.604
▁النشاط	-10.604
▁طالب	-10.6041
▁passed	-10.6041
▁خطط	-10.6041
▁supported	-10.6046
▁القواعد	-10.6046
▁مش	-10.6047
▁ربط	-10.6049
▁أسباب	-10.6052
▁الأصدقاء	-10.6054
▁Har	-10.6056
يًا	-10.6057
back	-10.6059
▁(5)	-10.6059
Application	-10.6059
av	-10.6061
▁Che	-10.6063
▁relationships	-10.6064
▁Press	-10.6067
الأ	-10.6071
ify	-10.6078
Any	-10.6079
▁24/7	-10.6079
COM	-10.6079
tr	-10.6082
▁لتحديد	-10.6083
▁Express	-10.6083
▁الرسائل	-10.6083
▁apartment	-10.6083
▁bus	-10.6084
▁مسؤول	-10.6084
▁180	-10.6084
فور	-10.6084
▁mail	-10.6085
▁Map	-10.6086
▁الحرب	-10.6087
sha	-10.6089
▁Private	-10.609
▁الأدوية	-10.609
Ma	-10.6097
▁significant	-10.6097
▁نسخ	-10.6102
▁دا	-10.6103
▁أبدا	-10.6103
▁proud	-10.6104
▁feature	-10.6106
Host	-10.6107
▁Within	-10.6107
▁DO	-10.6108
▁يتعين	-10.6113
▁ستة	-10.6113
▁الربيع	-10.6116
br	-10.6117
▁الأمثل	-10.6118
09	-10.6118
▁قام	-10.6119
▁locations	-10.6119
▁مرور	-10.612
▁يعد	-10.6121
▁الرسالة	-10.6123
54	-10.6124
▁depend	-10.6126
▁عامل	-10.6126
▁البند	-10.6127
▁Paper	-10.613
▁سحب	-10.6133
▁المستشفى	-10.6133
▁ويجب	-10.6135
▁obtain	-10.6136
▁رئيسية	-10.6136
▁النقر	-10.6138
▁المعادن	-10.6143
ep	-10.6143
eu	-10.6146
▁po	-10.6146
▁profit	-10.6147
▁Cat	-10.615
▁20%	-10.615
انت	-10.6151
▁Has	-10.6153
▁لما	-10.6153
▁drink	-10.6155
▁صارمة	-10.6157
قطع	-10.6157
2.	-10.6157
▁يريد	-10.616
▁لزم	-10.6162
Type	-10.6163
▁currencies	-10.6168
▁Excellent	-10.6169
▁بالطبع	-10.617
▁عناصر	-10.6172
▁Ko	-10.6174
▁Pa	-10.618
▁Ukraine	-10.618
▁بهذا	-10.618
▁الكبير	-10.618
▁Multi	-10.6182
▁goes	-10.6183
▁pleased	-10.6188
cy	-10.6189
▁خفيفة	-10.6189
▁تجاري	-10.6193
▁Powered	-10.6193
▁ذكر	-10.6195
▁monitor	-10.6195
نو	-10.6197
▁books	-10.6201
▁exercise	-10.6201
▁فرق	-10.6202
غو	-10.6205
▁تطور	-10.6206
▁income	-10.6207
▁interface	-10.6207
▁centers	-10.6207
▁إقامة	-10.6211
منح	-10.6212
▁للت	-10.6216
▁reliability	-10.622
▁Pay	-10.6221
▁Port	-10.6221
▁winter	-10.6222
▁الأمور	-10.6222
▁العضوية	-10.6222
▁networks	-10.6226
▁المش	-10.6231
▁led	-10.6232
DS	-10.6232
▁couple	-10.6233
أفضل	-10.6235
▁AED	-10.6238
▁حقيقة	-10.6238
٠	-10.6244
▁population	-10.6246
▁fixed	-10.6247
▁المرض	-10.6247
▁trying	-10.625
▁كثيرا	-10.625
▁يورو	-10.6258
▁Com	-10.6258
vent	-10.6264
▁medicine	-10.6267
▁Nations	-10.6269
▁المثالي	-10.6273
شرك	-10.6273
mal	-10.6274
▁arrive	-10.6276
▁risks	-10.6277
▁بيان	-10.628
ins	-10.6281
▁HTML	-10.6282
▁Years	-10.6283
▁باسم	-10.6283
▁contribute	-10.6284
▁تحتاجه	-10.6284
▁أساسا	-10.6285
▁buying	-10.6285
▁therefore	-10.6286
▁استفسارات	-10.629
▁round	-10.6293
▁sense	-10.63
▁seven	-10.63
▁أس	-10.6303
▁powder	-10.6305
fer	-10.6305
▁Change	-10.6307
▁اقتراح	-10.6307
▁camera	-10.6308
Since	-10.6309
▁Sp	-10.6313
▁fine	-10.6315
▁YOUR	-10.6317
▁Max	-10.6318
▁وقال	-10.6319
▁la	-10.6324
▁combination	-10.6325
▁interview	-10.6325
طل	-10.6328
▁الجهد	-10.6329
▁لتطوير	-10.6329
▁PP	-10.633
▁المعنية	-10.6334
app	-10.6336
▁lock	-10.6337
▁says	-10.6337
▁establish	-10.6338
▁bottom	-10.6338
▁السنوية	-10.6339
▁أغسطس	-10.6342
tle	-10.6344
nes	-10.6348
ّد	-10.6353
▁سفر	-10.6354
▁شريط	-10.6355
ائها	-10.6355
Book	-10.6363
▁دومين	-10.6365
▁اللائحة	-10.6365
اري	-10.6367
وان	-10.6368
ino	-10.6368
ّر	-10.6373
▁representative	-10.6374
ez	-10.6374
▁QC	-10.6374
▁consists	-10.6379
▁أشياء	-10.638
tt	-10.6383
▁ارتداء	-10.6385
▁actual	-10.6385
▁التغييرات	-10.6386
▁بأ	-10.6389
▁thousands	-10.6389
▁يحصل	-10.6389
▁وجعل	-10.639
فار	-10.6393
▁restaurant	-10.6393
▁المشار	-10.6395
▁usage	-10.6397
▁مطعم	-10.6399
▁characteristics	-10.64
▁cycle	-10.6403
▁Different	-10.6408
▁تحب	-10.6409
▁Min	-10.6409
fr	-10.641
▁jobs	-10.641
▁العلمية	-10.6411
▁تفضل	-10.6412
▁تح	-10.6416
ever	-10.642
kin	-10.6421
▁ma	-10.6422
▁نجعل	-10.6423
▁browser	-10.6424
▁الهيكل	-10.6427
▁Floor	-10.6428
▁شقة	-10.643
▁Collection	-10.6433
▁ظل	-10.6434
85	-10.6436
راد	-10.644
▁عاماً	-10.6441
▁الرأس	-10.6442
UR	-10.6444
Good	-10.6444
▁والا	-10.6445
ade	-10.6446
▁التحميل	-10.645
48	-10.645
▁PVC	-10.6452
▁Construction	-10.6455
▁سأ	-10.6456
▁newsletter	-10.6458
▁المتوقع	-10.6459
▁Login	-10.646
تشو	-10.6461
▁Step	-10.6462
SC	-10.6464
▁الألومنيوم	-10.6465
▁المتخصصة	-10.6465
tation	-10.6466
▁نصائح	-10.647
▁Insurance	-10.6471
زا	-10.6472
06	-10.6474
▁أشكال	-10.648
▁luck	-10.648
▁الظهر	-10.6483
Ro	-10.6484
IA	-10.6485
▁remote	-10.6485
▁forget	-10.6486
-2	-10.6486
ious	-10.6486
▁connected	-10.6487
▁تمت	-10.649
▁والتكنولوجيا	-10.6491
har	-10.6496
▁Credit	-10.6496
▁prefer	-10.6498
مرة	-10.6499
▁specification	-10.6501
▁seek	-10.6502
▁العلوم	-10.6503
▁المرة	-10.6503
▁تذهب	-10.6504
eng	-10.6505
▁تغطية	-10.6507
SP	-10.6508
▁تأسست	-10.6509
▁plants	-10.6513
▁encourage	-10.6515
ations	-10.652
▁أفراد	-10.6521
صاب	-10.6522
▁AC	-10.6524
▁المجاني	-10.6528
▁جمهورية	-10.6529
حب	-10.653
▁33	-10.6537
سير	-10.6537
▁fraud	-10.6539
▁المنظمة	-10.6541
ada	-10.6542
ates	-10.6544
tin	-10.655
▁huge	-10.6552
▁عبد	-10.6553
▁however	-10.6555
▁confirmation	-10.6555
▁القهوة	-10.6556
▁Current	-10.6556
St	-10.6557
▁AL	-10.6562
لاند	-10.6562
ray	-10.6563
ib	-10.6564
▁الدراسات	-10.6566
▁السنوي	-10.6566
ub	-10.6568
▁نأمل	-10.6569
▁العائلة	-10.6572
▁Details	-10.6578
▁إعطاء	-10.6579
▁diseases	-10.658
▁البرمجيات	-10.6584
▁compared	-10.6585
▁للمنتجات	-10.6585
▁holiday	-10.659
▁finance	-10.6592
▁communities	-10.6593
▁التعبير	-10.6593
مدة	-10.6596
▁regard	-10.6597
▁التقرير	-10.66
فاء	-10.66
▁وإذا	-10.6601
▁مرنة	-10.6601
▁Sports	-10.6601
▁تخ	-10.6607
7%	-10.6607
▁والج	-10.661
▁decide	-10.661
▁الأنابيب	-10.6611
▁شهادات	-10.6611
قط	-10.6612
▁وسط	-10.6612
▁متخصصة	-10.6612
▁science	-10.6612
▁Safe	-10.6614
▁count	-10.6616
email	-10.6616
▁البطاقة	-10.6616
▁precision	-10.6617
▁Monday	-10.6619
▁الشتاء	-10.662
▁الساخنة	-10.6622
▁لإنتاج	-10.6623
▁cooperate	-10.6624
▁كا	-10.6625
▁Finance	-10.6628
▁Korea	-10.6628
▁دورات	-10.6628
دية	-10.6629
96	-10.663
▁Club	-10.6634
MM	-10.6634
حقوق	-10.6635
▁wind	-10.6637
▁Shop	-10.6644
▁بيت	-10.6644
ريس	-10.665
▁مبلغ	-10.6652
▁القراءة	-10.6656
Home	-10.6663
▁assembly	-10.6663
▁بالسيارة	-10.6663
▁المغرب	-10.6665
▁كتب	-10.6666
▁Parts	-10.667
▁طبيعي	-10.667
▁للشركة	-10.667
تون	-10.6671
▁المفوضية	-10.6671
▁giving	-10.6674
▁يستطيع	-10.6676
▁نتمكن	-10.6678
▁نضمن	-10.6678
▁agent	-10.6682
▁Land	-10.6682
ره	-10.6682
▁Categories	-10.6685
▁principle	-10.6687
▁التعلم	-10.6688
اغ	-10.6688
▁للإ	-10.6691
pic	-10.6693
▁ones	-10.6694
▁بغض	-10.6694
▁برو	-10.6694
▁الجوية	-10.6694
تس	-10.6697
▁ردود	-10.6697
▁Under	-10.67
▁priority	-10.6704
▁صاحب	-10.6705
res	-10.6705
▁restaurants	-10.6706
نب	-10.671
▁discover	-10.6712
لب	-10.6715
لية	-10.6716
▁التحويل	-10.6723
▁effort	-10.6728
▁min	-10.6728
▁ميناء	-10.6729
▁thought	-10.673
mark	-10.673
▁window	-10.6731
▁bright	-10.6742
▁أربع	-10.6743
▁improving	-10.6743
▁يصبح	-10.6751
▁وكيل	-10.6754
!!!	-10.6754
▁tea	-10.6754
▁fight	-10.6755
▁accuracy	-10.6757
▁الموزعين	-10.676
▁rain	-10.6761
▁Jo	-10.6761
شت	-10.6762
yo	-10.6764
▁guaranteed	-10.6764
▁تر	-10.6768
▁interior	-10.677
▁المحيط	-10.6771
▁الاتجاه	-10.6772
▁upgrade	-10.6773
▁السريعة	-10.6777
▁مهتم	-10.6778
ارت	-10.6784
▁العناية	-10.6784
▁Fe	-10.679
ATION	-10.679
64	-10.679
Note	-10.6791
▁التقييم	-10.6791
rk	-10.6798
▁الرائعة	-10.6799
▁تبادل	-10.68
▁نرى	-10.6801
▁تتراوح	-10.6801
▁يونيون	-10.6803
ورة	-10.6804
▁civil	-10.6805
▁reflect	-10.6805
▁التغذية	-10.6806
▁smooth	-10.6806
▁يظهر	-10.6807
▁يقل	-10.6809
▁تنزيل	-10.6812
▁عملنا	-10.6813
OL	-10.6813
▁أفكار	-10.6819
ولا	-10.6823
44	-10.6828
▁محدود	-10.6828
Other	-10.683
▁بلدان	-10.6834
▁proper	-10.6836
▁مقدما	-10.6837
▁الغذائي	-10.684
▁vary	-10.6842
▁investors	-10.6846
▁وفقاً	-10.6846
▁مصمم	-10.6846
▁Annual	-10.6849
سور	-10.6851
ائك	-10.6852
▁يعتبر	-10.6852
الآن	-10.6853
راف	-10.6854
▁للاتصال	-10.6858
▁يست	-10.686
▁القضايا	-10.6861
▁fair	-10.6863
▁الجوي	-10.6863
Hi	-10.6864
▁لمنع	-10.6868
site	-10.688
▁Technologies	-10.6882
▁الكهربائي	-10.6883
▁flight	-10.6883
▁تزيد	-10.6885
▁الحقيقة	-10.6887
حافظ	-10.6889
لون	-10.689
▁البر	-10.6894
▁choosing	-10.6895
▁1-2	-10.69
▁comply	-10.6901
▁Place	-10.6904
▁took	-10.6904
▁Master	-10.6905
▁المهني	-10.6906
FA	-10.6907
▁والجودة	-10.691
▁partnership	-10.6911
▁Du	-10.6915
▁الحسابات	-10.6916
▁تسوق	-10.6917
▁يوميا	-10.6917
ction	-10.6919
دون	-10.692
▁قليل	-10.6923
ver	-10.6924
▁يعطي	-10.6924
08	-10.6926
▁تتمتع	-10.6927
▁author	-10.6928
▁رئيسي	-10.693
▁المشترك	-10.693
▁شارك	-10.6932
شكرا	-10.6937
▁Film	-10.6938
▁الزراعة	-10.6941
▁خالية	-10.6942
▁Engineering	-10.6942
98	-10.6944
▁players	-10.6945
▁الرحلة	-10.6947
دير	-10.6948
▁العلم	-10.6949
▁التعليمات	-10.695
▁موك	-10.695
▁رجال	-10.6952
GB	-10.6952
▁التعرف	-10.6957
▁للتحقق	-10.6962
nt	-10.6962
▁كانون	-10.6962
فضل	-10.6963
▁bottle	-10.6967
▁Systems	-10.6969
▁Brand	-10.697
▁payments	-10.6971
▁الغرف	-10.6972
house	-10.6974
▁أنني	-10.6979
▁وضعت	-10.6979
▁جيّد	-10.698
▁تدفق	-10.6981
▁Whereas	-10.6982
▁deep	-10.6982
رسل	-10.6983
▁التحدث	-10.6988
▁Palestine	-10.6988
▁للمزيد	-10.6991
▁Exhibition	-10.6991
▁Three	-10.6992
▁Morocco	-10.6994
▁biggest	-10.6994
▁الكرتون	-10.6994
▁alone	-10.6995
▁PM	-10.6995
شير	-10.6995
▁fish	-10.6998
▁chain	-10.6998
▁diet	-10.7001
▁عبارة	-10.7001
▁هاتف	-10.7001
▁لإدارة	-10.7004
▁الدرجة	-10.7007
▁voice	-10.7008
▁Future	-10.7008
▁Istanbul	-10.7011
▁Shipping	-10.7015
▁improvement	-10.7016
▁القرن	-10.7017
▁الثابتة	-10.7018
▁الإنسانية	-10.7019
▁البلاستيكية	-10.7019
▁Jeddah	-10.7022
▁Ch	-10.7022
▁اجتماع	-10.7023
▁Cancel	-10.7024
▁الشريط	-10.7025
▁نسعى	-10.7029
▁direction	-10.7032
▁Bu	-10.7032
▁Plastic	-10.7039
▁ث	-10.7044
▁sh	-10.7044
روح	-10.7044
▁الرقمي	-10.7045
قت	-10.7047
▁freely	-10.7049
ified	-10.705
ob	-10.7052
▁Estate	-10.7052
حمل	-10.7052
▁animal	-10.7053
▁الشكل	-10.7054
▁لمساعدة	-10.7057
CA	-10.7059
▁prepared	-10.7063
▁pool	-10.7065
gan	-10.7065
▁مباشر	-10.7066
▁charges	-10.7067
وفقا	-10.7069
▁placed	-10.7071
hu	-10.7075
▁محل	-10.7075
▁ثالث	-10.7076
▁middle	-10.7079
▁السبت	-10.708
300	-10.708
▁11.	-10.7084
▁إست	-10.7085
▁والسلامة	-10.7086
▁Quick	-10.7086
▁الجمال	-10.7088
▁السياحة	-10.7089
ye	-10.709
▁منزلك	-10.7091
▁Advanced	-10.7093
▁laser	-10.7094
▁awareness	-10.7094
71	-10.7095
MO	-10.7096
PA	-10.7097
▁العقد	-10.7102
زو	-10.7104
▁الحقيقية	-10.7106
▁Ver	-10.7108
▁Hi	-10.7109
▁بأفضل	-10.7109
▁بوابة	-10.711
▁أنبوب	-10.7111
روب	-10.7111
▁format	-10.7112
▁MOQ	-10.7114
▁المشتري	-10.7115
▁السطح	-10.712
▁Before	-10.7124
▁aspects	-10.7129
▁المطبخ	-10.7129
▁setting	-10.713
▁increasing	-10.713
شر	-10.7134
LA	-10.7135
▁Well	-10.7137
▁موظف	-10.7137
▁actions	-10.7138
▁درهم	-10.7139
▁الخليج	-10.714
اللون	-10.7143
lot	-10.7143
▁الز	-10.7144
دور	-10.7144
▁happen	-10.715
▁رحلات	-10.7155
▁الكرة	-10.7156
▁wedding	-10.7159
تصميم	-10.7161
test	-10.7163
▁والدعم	-10.7163
▁housing	-10.7165
▁اهتمام	-10.7167
▁Apple	-10.717
▁WE	-10.7171
med	-10.7171
▁فتاة	-10.7171
▁tickets	-10.7172
","	-10.7175
▁لإنشاء	-10.7177
▁عمان	-10.7177
▁Si	-10.7177
▁failure	-10.7179
▁تؤثر	-10.7181
▁records	-10.7183
▁أساسي	-10.7184
▁العطر	-10.7184
37	-10.7185
▁الإيطالية	-10.7188
له	-10.719
أسر	-10.7192
▁هؤلاء	-10.7196
▁الأغذية	-10.7197
31	-10.7199
Contact	-10.72
جان	-10.7202
▁programme	-10.7206
▁heating	-10.7207
▁database	-10.7208
▁موجود	-10.7209
▁البيت	-10.7214
▁Ru	-10.7214
▁dust	-10.7221
▁تقل	-10.7224
▁2004	-10.7226
▁الكتابة	-10.7229
▁موارد	-10.7231
قسم	-10.7231
▁التفكير	-10.7233
▁happens	-10.7233
▁College	-10.7237
▁كافية	-10.7237
▁employment	-10.7237
ارد	-10.7238
▁الميكانيكية	-10.7242
▁المهمة	-10.7242
ستعمل	-10.7243
▁لتعزيز	-10.7243
▁بنظام	-10.7247
▁Pe	-10.7248
▁نعتقد	-10.725
وض	-10.7251
▁Annex	-10.7251
▁الصناعي	-10.7252
▁عنصر	-10.7254
▁تقارير	-10.7256
▁Ho	-10.7256
▁Try	-10.7257
▁الأيام	-10.7257
▁5%	-10.7262
▁2003	-10.7263
▁Exchange	-10.7266
▁قل	-10.7266
▁Manager	-10.7271
▁القاهرة	-10.7271
uck	-10.7276
▁User	-10.7282
▁solid	-10.7283
▁طفلك	-10.7286
key	-10.7287
▁بتاريخ	-10.7288
▁imp	-10.7288
بما	-10.7289
مين	-10.7291
▁الحديدية	-10.7292
وصى	-10.7292
▁الطبيعة	-10.7295
▁background	-10.7295
▁opened	-10.7296
▁يومًا	-10.7297
DI	-10.7298
▁مساءً	-10.7299
ds	-10.7299
▁النسيج	-10.73
▁للسيارات	-10.7301
▁الأفلام	-10.7301
▁town	-10.7301
▁founded	-10.7302
▁According	-10.7302
They	-10.7309
▁ريال	-10.7309
▁MB	-10.7309
▁ويسترن	-10.7309
▁مستمر	-10.7312
▁مظهر	-10.7312
04	-10.7312
cam	-10.7312
MP	-10.7313
▁Meeting	-10.7313
These	-10.7314
▁رضا	-10.7314
▁الطلق	-10.7318
LY	-10.7319
▁consult	-10.732
▁Amazon	-10.7324
▁المضافة	-10.7324
▁Big	-10.7324
▁الإن	-10.7328
CC	-10.7329
▁customize	-10.733
▁regularly	-10.7334
تعرف	-10.7334
▁micro	-10.7336
▁covers	-10.7336
تطور	-10.7336
شرف	-10.7338
جا	-10.7338
▁ourselves	-10.7338
▁الهجرة	-10.7339
▁مدرسة	-10.7341
▁trial	-10.7343
▁فلسطين	-10.7345
▁النماذج	-10.7345
▁المستندات	-10.7345
فعل	-10.7347
▁الث	-10.735
▁Ability	-10.7353
My	-10.7353
▁Head	-10.7357
▁Submit	-10.7362
▁إعلان	-10.7364
▁التحتية	-10.7368
▁السلطات	-10.7368
▁لخدمة	-10.7368
▁clothes	-10.7369
39	-10.7369
▁وضمان	-10.737
▁المتوفرة	-10.7372
▁التلفزيون	-10.7374
▁Bi	-10.7375
▁فوائد	-10.7376
Arabic	-10.7377
▁ex	-10.7378
▁Sun	-10.738
▁الإسبانية	-10.7382
▁central	-10.7383
▁sets	-10.7383
▁met	-10.7384
▁ترجمة	-10.7385
▁Money	-10.7387
▁cooling	-10.7387
سر	-10.739
▁Environment	-10.7392
▁Brazil	-10.7394
▁الزفاف	-10.7397
▁server	-10.7398
qa	-10.74
▁degrees	-10.7401
▁administrative	-10.7412
▁PA	-10.7412
▁الذكي	-10.7414
▁مق	-10.7415
▁بضع	-10.7417
▁overall	-10.7418
▁الوحدة	-10.7423
▁Hu	-10.7423
▁n	-10.7424
▁السكان	-10.7424
ura	-10.7425
ضة	-10.7427
rm	-10.7428
▁لأول	-10.7429
▁راض	-10.7432
▁Resources	-10.7434
مكتب	-10.7435
▁سير	-10.7435
▁هدف	-10.7436
وصف	-10.7437
▁شر	-10.744
RC	-10.744
▁الانتظار	-10.7441
▁صفحات	-10.7442
▁واجهة	-10.7443
▁pm	-10.7444
▁Customers	-10.7445
▁الطلاء	-10.7447
▁tank	-10.7448
▁التنفيذي	-10.7449
IVE	-10.745
▁decided	-10.7452
نع	-10.7453
▁٢٠١	-10.7458
▁Wa	-10.7464
سلام	-10.7466
▁specified	-10.7471
▁نوم	-10.7472
▁مفهوم	-10.7473
▁إما	-10.7476
▁تجهيز	-10.7477
نى	-10.7478
ala	-10.7479
ضع	-10.7479
▁authorized	-10.748
حول	-10.7488
يمكننا	-10.7489
▁Ke	-10.7489
▁channel	-10.749
Not	-10.749
▁فريد	-10.7495
▁الإدارية	-10.7495
▁minute	-10.7497
SO	-10.7499
▁01	-10.7501
▁submitted	-10.7501
▁النفايات	-10.7506
▁adjust	-10.7507
▁actually	-10.7507
▁ticket	-10.7507
▁clothing	-10.7508
▁messages	-10.7509
-10	-10.7509
روس	-10.7509
PAY	-10.7509
▁ويب	-10.7511
▁إس	-10.7515
▁criteria	-10.7515
▁explore	-10.7515
جار	-10.7518
▁(2	-10.752
▁العوامل	-10.752
▁Tech	-10.7521
▁ST	-10.7523
▁بطلب	-10.7524
▁الطبعة	-10.7525
▁لبعض	-10.7526
▁البحوث	-10.7532
▁يتيح	-10.7533
▁Zone	-10.7534
made	-10.7536
▁Using	-10.7536
▁360	-10.7537
ذر	-10.754
▁لبناء	-10.7542
▁military	-10.7545
▁Gas	-10.7547
▁Sample	-10.7548
ضمن	-10.755
يش	-10.755
mit	-10.7555
pos	-10.7558
RO	-10.7558
▁غيار	-10.756
DA	-10.756
▁suggest	-10.7561
▁72	-10.7562
ناقش	-10.7563
▁أدنى	-10.7564
▁منه	-10.7567
);	-10.7567
▁ba	-10.7568
▁Trans	-10.7568
ملاحظة	-10.7568
▁yellow	-10.757
لذلك	-10.7574
▁Em	-10.7574
ml	-10.7574
▁Apply	-10.7577
▁branches	-10.7578
▁الانتقال	-10.7579
▁feed	-10.7579
97	-10.7582
▁2018.	-10.7582
▁establishment	-10.7584
▁buyer	-10.7584
▁II	-10.759
▁influence	-10.759
▁District	-10.759
ery	-10.7591
▁مورد	-10.7594
zz	-10.7594
▁التقني	-10.7594
▁cross	-10.7596
▁قصة	-10.7599
▁الدراسية	-10.7601
▁launch	-10.7604
▁أسلوب	-10.7604
▁Fire	-10.7604
▁Culture	-10.7605
▁الإخبارية	-10.7605
▁Unit	-10.7605
▁مخاطر	-10.7607
▁المق	-10.7608
▁أوكرانيا	-10.7611
▁supporting	-10.7612
شن	-10.7617
▁contain	-10.7619
▁pollution	-10.762
PP	-10.762
توفر	-10.7622
▁Packaging	-10.7623
بيع	-10.7623
▁هاتفك	-10.7623
عرب	-10.7624
▁مستقل	-10.7625
cal	-10.7625
▁achieved	-10.7625
▁BE	-10.7626
كين	-10.7627
▁غنية	-10.763
▁إيقاف	-10.7632
▁بنفس	-10.7633
▁shoes	-10.7633
gra	-10.7633
▁العين	-10.7635
▁تو	-10.7635
قدر	-10.7636
طة	-10.7638
▁جائزة	-10.7643
▁وأمريكا	-10.7643
▁أمن	-10.7649
▁Room	-10.765
▁strive	-10.765
▁الاجتماع	-10.7653
Fi	-10.7662
▁promise	-10.7664
▁preparation	-10.7665
▁Managed	-10.7669
▁promotion	-10.7669
▁demands	-10.7672
▁رأي	-10.7679
▁أد	-10.7679
▁Line	-10.7679
▁expectations	-10.7681
▁خبراء	-10.7681
▁الأوقات	-10.7684
▁الاستجابة	-10.7686
اتهم	-10.769
تسم	-10.7696
unt	-10.7699
▁bo	-10.7701
▁plate	-10.7703
ica	-10.7703
▁Win	-10.7708
▁zone	-10.771
▁certified	-10.771
▁حديقة	-10.7713
▁Rental	-10.7714
▁requested	-10.7717
tch	-10.7717
▁قانونية	-10.7718
▁البرازيل	-10.7719
▁أحمر	-10.7719
▁street	-10.7719
▁enterprise	-10.7719
▁attract	-10.7723
Before	-10.7723
▁ين	-10.7725
▁لغات	-10.7726
▁التحليل	-10.7726
تواصل	-10.7728
▁stress	-10.7729
pre	-10.7731
sp	-10.7735
▁القانوني	-10.7737
▁invest	-10.7739
▁آثار	-10.7741
▁كلما	-10.7742
▁percent	-10.7742
ans	-10.7744
▁constantly	-10.7745
▁الهندسة	-10.7746
▁أعتقد	-10.7748
ani	-10.7748
▁master	-10.7749
▁fruit	-10.775
▁ودعم	-10.7753
▁حقيقي	-10.7756
▁العلوي	-10.7756
▁رسول	-10.7756
ised	-10.7757
▁الخروج	-10.7757
▁الاستراتيجية	-10.7758
1.	-10.7758
بق	-10.7759
▁الخريطة	-10.7759
▁sa	-10.7759
▁تخضع	-10.776
▁Ticket	-10.7766
رسم	-10.7767
▁موثوقة	-10.7767
▁sometimes	-10.7771
▁Executive	-10.7776
▁fat	-10.7776
cket	-10.7776
▁الإطلاق	-10.7777
▁paragraph	-10.7787
▁طاقة	-10.7787
▁البنود	-10.7787
▁manner	-10.7788
▁went	-10.7791
▁يأخذ	-10.7793
▁Address	-10.7794
ification	-10.7796
▁comp	-10.7797
▁الأجنبية	-10.7797
▁تنمية	-10.78
▁جر	-10.7801
▁المشروبات	-10.7802
▁Meet	-10.7804
▁مرض	-10.7806
▁اتفاقية	-10.7808
▁Certificate	-10.7811
▁تس	-10.7816
long	-10.7817
ــ	-10.7818
▁نقص	-10.782
أخذ	-10.7821
دان	-10.7822
▁توقف	-10.7823
▁adults	-10.7824
▁مؤتمر	-10.7826
▁Offer	-10.7828
2000	-10.7829
▁rent	-10.7829
▁filling	-10.7829
▁وك	-10.7831
▁Studies	-10.7833
-3	-10.7835
▁wonderful	-10.7836
▁المعارض	-10.7837
▁presented	-10.7838
▁التالى	-10.7839
▁banking	-10.7839
▁consumer	-10.7841
حي	-10.7842
▁Foreign	-10.7842
CM	-10.7843
▁مسحوق	-10.7846
▁Affairs	-10.7848
▁Society	-10.7848
▁شمال	-10.7849
▁generation	-10.785
▁log	-10.7852
▁استرداد	-10.7852
مول	-10.7855
ably	-10.7857
استخدام	-10.7857
vers	-10.7859
▁survey	-10.7863
▁الشبكات	-10.7864
▁مخزون	-10.7864
▁"9.	-10.7865
▁Metal	-10.7868
ons	-10.7876
▁Corporate	-10.7876
▁والق	-10.7877
EA	-10.7877
وني	-10.7879
OT	-10.7881
ei	-10.7883
▁الفئات	-10.7887
▁confidence	-10.7888
▁manager	-10.7888
ظل	-10.7888
""،	-10.789
▁wanted	-10.7893
▁ضريبة	-10.7893
▁roll	-10.7893
Welcome	-10.7894
▁"4)	-10.7894
TI	-10.7894
▁stainless	-10.7894
▁الفقرة	-10.7895
▁معلوماتك	-10.7896
▁وتشمل	-10.7898
▁التدابير	-10.7898
▁Complete	-10.7898
▁3000	-10.79
▁الخطأ	-10.7902
▁الأرقام	-10.7902
▁الساعات	-10.7903
باس	-10.7904
▁القابلة	-10.7906
▁Motor	-10.7908
nk	-10.7908
ara	-10.7908
▁statement	-10.7909
▁إيران	-10.7911
هام	-10.7911
▁greater	-10.7913
رو	-10.7914
صدق	-10.792
▁المباني	-10.7921
▁Shenzhen	-10.7924
▁Te	-10.7925
▁معها	-10.7926
▁الكمال	-10.7926
▁المشاركين	-10.7927
▁names	-10.793
▁ingredients	-10.793
▁الضرائب	-10.7931
▁شهرا	-10.7935
▁المفضل	-10.7936
▁garden	-10.7936
▁filter	-10.7936
▁المباشرة	-10.7938
▁تدعم	-10.794
▁negative	-10.7941
▁SO	-10.7941
▁timely	-10.7943
▁الثقافي	-10.7944
▁شي	-10.7945
▁calls	-10.7945
OW	-10.7946
سكن	-10.7951
Me	-10.7952
▁UPS	-10.7954
▁والح	-10.7954
▁phase	-10.7954
▁separate	-10.7956
▁Second	-10.7957
▁حدوث	-10.7957
▁authority	-10.7958
▁divided	-10.7958
▁wooden	-10.7959
▁Build	-10.796
▁أمان	-10.7961
▁الأمد	-10.7964
▁يد	-10.7965
▁معين	-10.7966
▁كانوا	-10.7967
صار	-10.7967
▁draw	-10.7967
▁conflict	-10.7972
CI	-10.7974
cc	-10.7975
▁overseas	-10.7975
▁المقال	-10.7984
▁beyond	-10.7987
▁extensive	-10.7987
▁الإطار	-10.7988
▁cr	-10.7991
▁Electronic	-10.7992
▁التقارير	-10.7996
يتها	-10.8001
▁جوجل	-10.8004
للحصول	-10.8004
▁تونس	-10.8005
▁5-	-10.8007
IM	-10.8009
▁للمستخدمين	-10.8009
▁95	-10.8009
ken	-10.8012
ستان	-10.8015
ذكر	-10.802
▁بدلا	-10.8021
▁نريد	-10.8022
▁المهندسين	-10.8023
star	-10.8024
▁السكن	-10.8024
▁أستطيع	-10.8026
▁identify	-10.803
▁Protect	-10.803
▁باريس	-10.8034
▁creation	-10.8034
▁Single	-10.8035
nch	-10.8035
▁Shanghai	-10.8036
▁جمعية	-10.8039
▁طبية	-10.8042
▁خصائص	-10.8043
▁مؤشر	-10.8046
list	-10.8046
▁وثائق	-10.8047
ther	-10.8047
▁كمبيوتر	-10.805
▁نجوم	-10.805
▁scale	-10.8051
▁تذاكر	-10.8052
▁Save	-10.8053
▁بخصوص	-10.8055
ربح	-10.8055
▁assets	-10.8056
▁concerned	-10.8057
لغ	-10.8057
▁Net	-10.8058
▁SGS	-10.8061
▁tracking	-10.8062
▁موجودة	-10.8064
▁Scientific	-10.8065
▁academic	-10.8065
▁Agency	-10.8066
▁امرأة	-10.8066
▁تهدف	-10.8066
▁مستشفى	-10.8067
▁decisions	-10.807
▁ca	-10.8078
▁Capital	-10.808
▁لمجموعة	-10.808
tive	-10.808
▁feeling	-10.8081
▁الكبرى	-10.8081
▁مبنى	-10.8081
▁خفض	-10.8083
شاهد	-10.8085
▁مقاطعة	-10.8086
▁Automatic	-10.8086
GA	-10.8087
▁infrastructure	-10.8097
▁possibility	-10.8097
▁alarm	-10.8097
▁نص	-10.8097
▁والمزيد	-10.8102
▁المتجر	-10.8104
▁wants	-10.8105
ette	-10.8109
وجه	-10.811
▁ad	-10.8111
▁Location	-10.8114
▁حمام	-10.8116
▁واست	-10.8116
uc	-10.8117
▁بجميع	-10.8118
رحب	-10.8119
win	-10.8119
▁الجدار	-10.812
▁الإضافية	-10.8121
يط	-10.8121
▁النسخة	-10.8122
▁الشهيرة	-10.8122
▁stored	-10.8126
▁التنفيذ	-10.8129
تكم	-10.813
▁يقرب	-10.8131
جري	-10.8132
▁loading	-10.8132
▁recovery	-10.8132
▁GPS	-10.8133
▁cm	-10.8135
▁printed	-10.8136
▁seat	-10.8144
▁valuable	-10.8144
▁XXX	-10.8145
77	-10.8146
▁فضلا	-10.8148
▁المحمولة	-10.815
▁imported	-10.8153
▁مستعد	-10.8156
كوم	-10.8157
▁accommodation	-10.816
ثم	-10.816
▁moving	-10.8161
▁المركزي	-10.8161
▁customs	-10.8166
hy	-10.8169
▁وأوروبا	-10.8171
▁NOT	-10.8171
▁launched	-10.8173
▁aware	-10.8174
▁techniques	-10.8176
▁extremely	-10.818
Free	-10.818
▁التوازن	-10.8182
yl	-10.8184
▁reduced	-10.8192
▁الاحتفاظ	-10.8192
▁مسؤولية	-10.8193
▁أود	-10.8194
▁!"	-10.8196
▁الشركاء	-10.8198
شي	-10.8199
▁حصل	-10.8201
▁ولم	-10.8203
▁نت	-10.8205
عمل	-10.8206
▁وسي	-10.8206
▁موظفي	-10.8207
بور	-10.8207
مركز	-10.8207
▁wash	-10.8212
▁cap	-10.8214
▁نظيفة	-10.8215
▁المحتملة	-10.8225
▁قانوني	-10.823
PC	-10.8232
ear	-10.8233
int	-10.8234
NI	-10.8235
▁shared	-10.8235
▁الجميلة	-10.8238
▁الكتب	-10.8238
▁وكالة	-10.8241
▁دولية	-10.8243
▁العلاقة	-10.8244
▁الصحيحة	-10.8249
▁visiting	-10.825
▁PS	-10.825
▁مهنية	-10.8252
68	-10.8256
▁audience	-10.8256
▁facilitate	-10.8256
▁memory	-10.8256
▁optional	-10.8266
خت	-10.8266
شرط	-10.8268
▁مفصلة	-10.827
▁notes	-10.827
▁المخدرات	-10.8272
▁membership	-10.8273
▁44	-10.8275
▁ON	-10.8276
▁أقول	-10.8277
▁والتعليم	-10.8279
▁Perfect	-10.8284
▁Property	-10.8284
▁باستثناء	-10.8284
▁الإنتاجية	-10.8285
▁carbon	-10.8286
ضم	-10.8287
▁alternative	-10.8287
▁enquiry	-10.8288
▁السفينة	-10.8288
▁listen	-10.8288
▁permit	-10.829
▁earn	-10.8292
ku	-10.8292
New	-10.8293
▁التنزيل	-10.8293
▁Natural	-10.8294
▁اليومي	-10.8295
▁استثمار	-10.8296
كار	-10.8296
▁بار	-10.8297
▁continuously	-10.8297
62	-10.8298
ao	-10.8298
▁challenge	-10.8303
▁arrival	-10.8304
▁للطاقة	-10.8304
مسؤول	-10.8306
بول	-10.8306
▁Suitable	-10.8307
▁جنبا	-10.8307
▁كبار	-10.831
▁تصفح	-10.8315
ترك	-10.8316
▁milk	-10.832
▁Agreement	-10.8321
▁صديقة	-10.8321
▁holidays	-10.8323
▁Environmental	-10.8324
▁claim	-10.8326
▁playing	-10.8329
▁أنهم	-10.833
▁الشعار	-10.833
▁التحديات	-10.8331
▁والشرق	-10.8332
▁المنافسة	-10.8332
▁paint	-10.8332
▁breakfast	-10.8336
HA	-10.8336
رضي	-10.8338
▁Pl	-10.834
Quality	-10.8341
▁تمكين	-10.8343
▁هدفنا	-10.8344
mas	-10.8345
وط	-10.8346
▁الامتثال	-10.8346
شكل	-10.8346
67	-10.8348
▁الدولار	-10.8349
▁causes	-10.8357
▁الأثاث	-10.8357
▁سعيدا	-10.8357
▁الخصم	-10.8358
▁sides	-10.8358
▁طبيب	-10.836
▁reality	-10.8361
▁الإعلانات	-10.8362
▁player	-10.8362
▁Tri	-10.8364
table	-10.8365
▁flexibility	-10.8369
ves	-10.8369
▁الزبون	-10.8369
▁Simple	-10.8371
▁youth	-10.8371
▁مجموع	-10.8375
▁Cost	-10.8382
▁Electric	-10.8382
▁الاس	-10.8384
▁الرجوع	-10.8385
▁transaction	-10.8385
▁Town	-10.8389
07	-10.839
▁During	-10.8392
▁لطيفة	-10.8392
▁sending	-10.8392
▁extend	-10.8393
▁Request	-10.8394
▁Civil	-10.8395
▁Director	-10.8397
▁لأنها	-10.8399
▁التابعة	-10.8399
▁السائل	-10.8402
▁Because	-10.8405
▁starts	-10.8409
▁الروابط	-10.8409
شغل	-10.841
▁Export	-10.841
▁الرؤية	-10.8411
:30	-10.8411
▁نيو	-10.8414
▁القيم	-10.8416
▁بياناتك	-10.8416
▁Sudan	-10.8417
يلي	-10.8418
▁otherwise	-10.842
raf	-10.8423
cn	-10.8426
▁interests	-10.8428
▁محدد	-10.8428
dia	-10.8431
▁تعتقد	-10.8433
▁سيارتك	-10.8434
▁Made	-10.8434
▁تفسير	-10.8435
قراءة	-10.8439
▁packages	-10.8439
▁تلعب	-10.8439
وث	-10.844
▁فئات	-10.844
▁والحد	-10.8441
خلال	-10.8442
▁(3	-10.8443
86	-10.8446
34	-10.8447
▁rather	-10.845
▁fiber	-10.8453
power	-10.8455
▁corner	-10.8456
▁جدة	-10.846
▁مؤهل	-10.846
nic	-10.8462
شارك	-10.8464
▁جواز	-10.8465
▁أنابيب	-10.8467
▁Tunisia	-10.8468
▁late	-10.8469
احة	-10.8469
▁والتنمية	-10.8477
▁aims	-10.8479
ks	-10.848
▁implement	-10.8481
▁truck	-10.8482
cr	-10.8483
▁passport	-10.8483
▁لست	-10.8483
▁الجهات	-10.8483
▁استيراد	-10.8484
▁Bin	-10.8484
▁للعميل	-10.8485
فن	-10.8485
▁الألياف	-10.8486
سان	-10.8486
amp	-10.8489
▁lowest	-10.849
▁kindly	-10.849
▁بارد	-10.8494
host	-10.8497
▁مندوب	-10.8498
عيش	-10.85
▁تقنيات	-10.85
▁harm	-10.85
▁RSS	-10.8501
▁الأخير	-10.8503
▁الشائعة	-10.8504
▁hydraulic	-10.8505
▁وانخفاض	-10.8505
▁cancel	-10.8505
▁properly	-10.8506
dar	-10.8508
ward	-10.8509
2019	-10.8515
▁ملاءمة	-10.8515
حالة	-10.8516
▁adjustable	-10.8518
61	-10.8518
▁manufactured	-10.852
▁الدفاع	-10.8527
▁strategies	-10.8532
▁Prophet	-10.8532
▁ام	-10.8532
read	-10.8533
▁رابط	-10.8533
▁evening	-10.8535
▁Right	-10.8535
▁PLC	-10.8537
▁مساء	-10.8537
وضع	-10.8537
49	-10.8538
ose	-10.8538
NET	-10.8539
▁المعتمدة	-10.854
▁instruments	-10.854
Thank	-10.8541
NA	-10.8541
▁drugs	-10.8543
▁AD	-10.8546
▁الانضمام	-10.8548
▁تعليم	-10.8548
داخل	-10.8554
▁Music	-10.8554
▁Samsung	-10.8556
ِّ	-10.8557
▁Tourism	-10.8557
▁الرمز	-10.8559
فتح	-10.8561
▁banks	-10.8563
▁38	-10.8564
▁warehouse	-10.8565
▁Fu	-10.8565
▁factories	-10.8565
▁الإجراء	-10.8569
▁certificates	-10.857
▁Switzerland	-10.857
▁Maintenance	-10.8574
▁الدليل	-10.8577
ائ	-10.8579
▁SE	-10.8579
▁قيادة	-10.8581
▁availability	-10.8581
▁نقدمها	-10.8582
▁راحة	-10.8583
shop	-10.8585
▁المرفق	-10.8586
▁Rose	-10.8587
▁Since	-10.8589
▁تخفيض	-10.8589
TV	-10.8593
▁والد	-10.8594
rry	-10.8596
▁surgery	-10.8598
▁اتجاه	-10.86
▁Direct	-10.86
▁freedom	-10.8601
may	-10.8602
Hosting	-10.8603
-5	-10.8605
OD	-10.8607
▁الوظيفة	-10.8608
▁supports	-10.8612
▁Info	-10.8614
▁controlled	-10.8614
▁transmission	-10.8614
▁act	-10.8615
▁fulfill	-10.8616
▁وتصميم	-10.8616
▁منتصف	-10.8617
▁أرقام	-10.8618
▁Dec	-10.8623
▁الخفيفة	-10.8625
فيما	-10.8625
الية	-10.8629
▁Act	-10.863
▁purchasing	-10.8631
▁residential	-10.8631
▁attractive	-10.8632
▁وتعزيز	-10.8634
▁tube	-10.8637
▁فإنك	-10.8637
ok	-10.8641
قاب	-10.8644
▁استضافة	-10.8645
▁recommendations	-10.8647
▁اكثر	-10.8648
▁sexual	-10.8648
▁Servers	-10.8656
▁Forex	-10.8658
▁المقبل	-10.8659
▁عالمي	-10.8663
▁pipe	-10.8664
▁4-	-10.8664
▁الأولية	-10.867
▁Distributors	-10.867
▁net	-10.8678
▁Projects	-10.8678
▁زيت	-10.8681
▁tomorrow	-10.8681
▁كسب	-10.8683
▁Downloads	-10.8693
▁symptoms	-10.8698
▁thousand	-10.8701
▁park	-10.8702
▁طرح	-10.8704
▁desired	-10.8705
Address	-10.8707
▁توسيع	-10.8707
▁غطاء	-10.8709
▁يتمتع	-10.8709
▁بنفسك	-10.8712
كشف	-10.8714
▁mutual	-10.8715
▁trouble	-10.8715
▁اللاجئين	-10.8715
شط	-10.8715
▁decoration	-10.8715
▁قناة	-10.8716
▁stages	-10.8717
▁الثقيلة	-10.8719
▁raise	-10.8721
سام	-10.8722
▁vi	-10.8723
▁provider	-10.8724
▁meaning	-10.8725
more	-10.8725
▁Questions	-10.8726
▁AS	-10.8726
▁Ali	-10.873
▁الجدد	-10.8733
▁Chi	-10.8734
▁lights	-10.8734
▁Machinery	-10.8734
▁الدين	-10.8735
▁كسر	-10.8738
▁Hong	-10.874
▁99	-10.8743
are	-10.8743
▁لكي	-10.8744
▁وجبة	-10.8744
BA	-10.8744
PO	-10.8747
▁relations	-10.8747
▁menu	-10.8748
▁Yemen	-10.8748
▁packed	-10.8749
▁framework	-10.875
▁Tools	-10.8752
وى	-10.8752
▁تجميع	-10.8754
▁الثقافة	-10.8756
dis	-10.8757
يء	-10.8758
▁festival	-10.8759
▁ثابتة	-10.8759
▁Large	-10.8761
▁Region	-10.8762
▁الثالثة	-10.8764
▁laid	-10.8766
يلة	-10.8767
▁proof	-10.8768
▁OR	-10.8771
▁السعودي	-10.8771
lit	-10.8772
▁born	-10.8776
▁guidance	-10.8782
▁superior	-10.8782
▁الهواتف	-10.8782
▁متعة	-10.8782
▁السياسية	-10.8784
▁الفيسبوك	-10.8784
▁مجهزة	-10.8786
▁drawings	-10.8786
▁ونظام	-10.8786
واء	-10.8788
▁cell	-10.8789
▁الأنواع	-10.8789
شخص	-10.8792
▁المعاملات	-10.8793
▁2002	-10.8795
Po	-10.8797
▁تطلب	-10.8798
▁الأحكام	-10.88
▁attend	-10.88
▁ثابت	-10.88
قاء	-10.88
▁اليونان	-10.8802
▁استعراض	-10.8803
▁مفتوح	-10.8804
▁Wednesday	-10.8804
▁وج	-10.8804
▁المستثمرين	-10.8804
▁Developed	-10.8806
▁acceptable	-10.8807
▁جاهزة	-10.8809
▁worked	-10.8809
▁الطويلة	-10.8815
▁Greek	-10.8816
▁WordPress	-10.8816
▁Display	-10.8817
▁Model	-10.8817
ذهب	-10.8818
▁ensures	-10.8818
نك	-10.8818
▁تكوين	-10.8819
▁والصيانة	-10.882
▁Double	-10.882
▁Dedicated	-10.8824
صرف	-10.8824
▁adopted	-10.8826
▁مالية	-10.8828
▁ويمكنك	-10.8828
والحفاظ	-10.8832
▁الكبار	-10.8834
اوي	-10.8834
▁Space	-10.8838
▁إحد	-10.8842
▁2030	-10.8842
▁Grand	-10.8844
friendly	-10.8845
ili	-10.8845
يكا	-10.8845
▁pe	-10.8847
▁retail	-10.8848
▁المميزة	-10.885
▁إشارة	-10.885
زر	-10.8855
life	-10.8856
▁ضروري	-10.8856
▁Wall	-10.8858
▁End	-10.8863
▁الكحول	-10.8867
▁glad	-10.8868
▁resistant	-10.8868
▁استجابة	-10.8871
▁ترخيص	-10.8873
▁delay	-10.8874
▁الحديد	-10.8877
▁لمراقبة	-10.8877
▁foundation	-10.8878
▁كثيرة	-10.8879
ENT	-10.8882
1:	-10.8885
▁topics	-10.8885
فين	-10.8886
▁الأبعاد	-10.8889
▁ظهر	-10.8891
▁الجانبية	-10.8891
▁Hand	-10.8892
▁مذهلة	-10.8892
▁الثقافية	-10.8897
▁helping	-10.8897
▁(5	-10.8898
▁spot	-10.8898
▁doors	-10.8899
▁جولة	-10.89
▁Province	-10.8901
▁broken	-10.8901
▁وموثوق	-10.8903
طرح	-10.8908
▁invite	-10.8908
FT	-10.891
▁حذف	-10.8911
▁كلمات	-10.8913
▁Days	-10.8915
▁استعادة	-10.8915
Ba	-10.8915
▁Computer	-10.8917
▁compliance	-10.8918
▁visual	-10.8918
▁Sector	-10.8918
▁المدرجة	-10.8918
▁equal	-10.8922
▁Portuguese	-10.8923
als	-10.8924
ties	-10.8925
gg	-10.8927
59	-10.8929
▁كلية	-10.8929
▁Like	-10.8932
▁likely	-10.8933
▁وزيادة	-10.8933
▁Countries	-10.8935
▁truth	-10.8935
▁bulk	-10.8935
TE	-10.8937
اكتب	-10.8938
▁بعمل	-10.8939
▁PRO	-10.894
▁rental	-10.8942
لاء	-10.8943
▁كال	-10.8943
تن	-10.8944
88	-10.8945
▁im	-10.8945
▁classic	-10.8946
▁Comments	-10.8946
شف	-10.8948
Get	-10.8949
▁cat	-10.8949
▁dealing	-10.8951
▁exciting	-10.8952
▁أصل	-10.8952
MI	-10.8953
lt	-10.8955
▁earth	-10.8957
▁مزدوجة	-10.8957
▁بالعمل	-10.8958
جمع	-10.8962
ida	-10.8965
▁signs	-10.8966
▁sha	-10.8966
▁ميزات	-10.8968
▁شيئا	-10.8968
▁الفصل	-10.8969
▁permission	-10.8971
USD	-10.8972
▁parking	-10.8973
rt	-10.8973
▁unless	-10.8974
▁الدقيقة	-10.8975
▁وتصنيع	-10.8978
▁أبو	-10.8983
▁bin	-10.8984
nce	-10.8985
▁صالح	-10.8986
▁الفعل	-10.8987
▁(6)	-10.8987
▁Gra	-10.899
▁لزيادة	-10.8992
Car	-10.8994
غسل	-10.8994
▁بد	-10.8995
جز	-10.8997
istic	-10.9
▁الوصف	-10.9002
▁mold	-10.9003
81	-10.9003
▁agricultural	-10.9004
print	-10.9006
▁Hair	-10.9006
hr	-10.9007
▁Cheap	-10.9009
▁facts	-10.9009
▁ابدأ	-10.901
▁تأسيس	-10.901
rea	-10.9012
▁Instagram	-10.9013
▁المساحة	-10.9015
شهد	-10.9016
Transfer	-10.9016
صنع	-10.9017
▁المقاومة	-10.902
▁باي	-10.902
▁residence	-10.9021
▁nearest	-10.9023
▁تبلغ	-10.9028
▁مساعد	-10.9031
vis	-10.9031
▁initial	-10.9032
لاحظ	-10.9033
▁Ab	-10.9034
56	-10.9035
▁Shared	-10.9037
▁tourism	-10.9038
▁تحويله	-10.9038
▁Barcelona	-10.9038
▁حاوية	-10.9039
▁announced	-10.9042
تذكر	-10.9043
▁شركاء	-10.9043
TION	-10.9045
ising	-10.9045
gn	-10.9045
58	-10.9049
▁du	-10.905
py	-10.9051
برنامج	-10.9056
▁80%	-10.9056
▁الثلاثة	-10.9056
▁جاهز	-10.9065
شروط	-10.9065
▁Mall	-10.9067
▁كوريا	-10.9068
▁التوصيل	-10.9069
Use	-10.907
51	-10.9071
During	-10.9072
▁Greece	-10.9073
▁الكتروني	-10.9074
uring	-10.9074
▁مقالات	-10.9074
ثبت	-10.9075
▁vote	-10.9076
▁الاستفسار	-10.9077
name	-10.9077
▁Below	-10.9077
▁نوفر	-10.9077
▁مخ	-10.9078
▁integration	-10.908
▁SEG	-10.908
▁measurement	-10.9081
▁Ba	-10.9081
مو	-10.9084
▁2019.	-10.9085
نية	-10.9087
▁أعمالنا	-10.9088
▁Tube	-10.909
▁أوقات	-10.909
▁Academy	-10.909
▁bodies	-10.909
▁competent	-10.909
▁watches	-10.9095
▁نزل	-10.9098
▁وثيقة	-10.9101
حدث	-10.9101
ساعد	-10.9103
Easy	-10.9104
▁views	-10.9106
▁السودان	-10.9107
▁المساهمة	-10.9108
east	-10.9109
▁farm	-10.9113
▁الأمام	-10.9113
▁بدلاً	-10.9114
لز	-10.9116
▁Sub	-10.9118
▁angle	-10.9119
▁2001	-10.9121
▁لحظة	-10.9122
▁القطاعات	-10.9124
▁Companies	-10.9125
▁title	-10.9125
▁مسار	-10.9126
▁الغبار	-10.9126
▁فنادق	-10.9126
▁healthcare	-10.9126
▁تك	-10.9129
▁كون	-10.913
▁secret	-10.9133
ATE	-10.9136
▁لبدء	-10.9137
▁مك	-10.9138
▁المخ	-10.9138
ونا	-10.9138
غني	-10.9142
▁pregnancy	-10.9143
▁voltage	-10.9143
▁الخضراء	-10.9143
▁الأجانب	-10.9143
▁em	-10.9144
▁Za	-10.9147
off	-10.9149
row	-10.9151
▁حار	-10.9151
▁luxury	-10.9151
▁owner	-10.9155
▁42	-10.9155
▁تعطي	-10.9157
▁Content	-10.9157
▁إيجاد	-10.9158
▁فن	-10.9158
قبول	-10.916
▁roof	-10.9161
POCH	-10.9161
▁الرصيد	-10.9163
▁bi	-10.9164
hal	-10.9165
▁Pages	-10.9165
ox	-10.9166
▁رب	-10.9166
▁العاملة	-10.9169
bb	-10.9171
▁signal	-10.9178
▁وح	-10.9181
العنوان	-10.9183
▁صمام	-10.9188
▁Case	-10.9189
▁ممثل	-10.919
▁concerning	-10.9191
▁اطفال	-10.9191
▁بوصة	-10.9196
▁34	-10.9197
▁الزواج	-10.9199
▁الاثنين	-10.9201
طبق	-10.9202
▁till	-10.9213
▁fear	-10.9215
well	-10.9215
oy	-10.9217
ect	-10.9217
▁القوانين	-10.9217
▁seems	-10.9217
▁تجديد	-10.9218
72	-10.9219
▁غسل	-10.9219
▁Mexico	-10.9224
▁reported	-10.9225
▁الخصائص	-10.9226
▁كله	-10.9229
Payment	-10.923
▁resolution	-10.9231
سحب	-10.9232
▁informed	-10.9235
▁لأولئك	-10.9235
▁ME	-10.9235
▁والك	-10.9237
▁EX	-10.9238
▁تأجير	-10.9238
▁leader	-10.9239
▁حامل	-10.924
2:	-10.9241
▁block	-10.9242
جب	-10.9245
▁إل	-10.9248
▁probably	-10.9248
قائمة	-10.9249
HO	-10.9254
▁تف	-10.9255
▁Yve	-10.9256
LL	-10.9257
▁sc	-10.9258
▁assessment	-10.9259
▁الكا	-10.926
▁برج	-10.9263
ita	-10.9263
▁الإسلامية	-10.9264
▁universities	-10.9266
place	-10.9268
iya	-10.9272
▁Markets	-10.9278
400	-10.9279
▁Beauty	-10.928
تأكد	-10.9282
▁حمل	-10.9283
عل	-10.9283
▁stories	-10.9284
▁أقوى	-10.9286
▁الاستقرار	-10.9289
▁المسافة	-10.9289
انها	-10.929
▁اعتبار	-10.9291
▁مناقشة	-10.9292
صة	-10.9293
DE	-10.9293
▁يتضمن	-10.9295
▁الموسم	-10.9297
▁صحي	-10.9298
▁لنظام	-10.9299
▁زجاجة	-10.9299
▁معهد	-10.93
▁WITH	-10.9301
▁المائية	-10.9302
▁الأراضي	-10.9302
▁الجر	-10.9302
تابع	-10.9304
▁th	-10.9306
▁غرب	-10.9306
▁فهو	-10.9306
PS	-10.9308
89	-10.9308
color	-10.9309
▁Cor	-10.9309
▁Look	-10.9309
market	-10.931
▁initiative	-10.9311
▁ميلاد	-10.9314
صد	-10.9314
proof	-10.9315
Every	-10.9318
ائق	-10.9319
▁sharing	-10.932
▁تعني	-10.9321
▁السماح	-10.9322
/3	-10.9322
▁الحرارية	-10.9323
Ha	-10.9323
غي	-10.9325
▁DC	-10.9327
▁وجهة	-10.9329
طالب	-10.9329
ائه	-10.9332
▁compatible	-10.9333
direct	-10.9333
ira	-10.9336
zo	-10.9338
ريف	-10.9338
▁اقتراحات	-10.9338
EP	-10.9339
▁Way	-10.9339
▁البا	-10.9341
▁لسنوات	-10.9343
▁centre	-10.9344
▁processed	-10.9344
▁approximately	-10.9345
▁die	-10.9347
47	-10.9349
▁للحماية	-10.935
▁كابل	-10.9351
800	-10.9351
نظم	-10.9353
▁خصيصا	-10.9354
▁لاحق	-10.9355
خص	-10.9356
▁كوب	-10.9356
▁بانتظام	-10.9356
▁iron	-10.9358
▁dynamic	-10.9362
▁CV	-10.9362
▁مماثلة	-10.9364
[	-10.9368
igh	-10.9368
▁origin	-10.9369
▁الحاضر	-10.9373
▁Rocher	-10.9373
▁الزمنية	-10.9373
▁الطرف	-10.9373
ظر	-10.9373
▁u	-10.9374
يكي	-10.9374
▁chosen	-10.9375
عر	-10.9376
ient	-10.9376
▁whom	-10.9379
▁للاستثمار	-10.9381
ists	-10.9382
▁دمج	-10.9386
▁شخصي	-10.9386
▁African	-10.939
Support	-10.939
class	-10.939
▁وزير	-10.9392
▁1998	-10.9392
▁cancer	-10.9394
▁تفعيل	-10.9394
▁الفوري	-10.9395
ram	-10.9397
▁tour	-10.9398
▁Indian	-10.9399
▁معهم	-10.9399
hotels	-10.9403
▁السياحية	-10.9406
تل	-10.9407
▁الليزر	-10.9409
▁افضل	-10.9413
AP	-10.9414
GO	-10.9416
▁الساخن	-10.9417
▁Ste	-10.9418
ological	-10.9419
ais	-10.9422
▁Youth	-10.9423
▁Chat	-10.9424
▁dark	-10.9426
▁Assembly	-10.9427
▁Corporation	-10.9427
▁وبأسعار	-10.9427
▁extensions	-10.9429
LS	-10.9429
▁الإشارة	-10.943
▁flat	-10.9435
▁investments	-10.9436
▁اشترك	-10.9439
▁particularly	-10.9442
ute	-10.9443
▁normally	-10.9444
▁استقبال	-10.9445
▁حديث	-10.9445
ress	-10.9445
▁Lord	-10.9446
▁Village	-10.9446
أم	-10.9446
▁تتجاوز	-10.9448
▁الممارسات	-10.945
hen	-10.9452
▁التوريد	-10.9455
▁mm	-10.9456
▁ذي	-10.9459
AB	-10.9461
▁safely	-10.9462
▁تحتاجها	-10.9463
▁Festival	-10.9463
▁Increase	-10.9464
▁Packing	-10.9464
▁treated	-10.9464
▁للماء	-10.9465
▁أسواق	-10.9469
▁everyday	-10.9469
bel	-10.947
▁السر	-10.947
▁المستهلك	-10.947
▁شك	-10.9471
▁ليلة	-10.9471
▁الصندوق	-10.9472
▁PO	-10.9472
57	-10.9475
▁characters	-10.9477
▁يقلل	-10.9479
ast	-10.948
▁مجانًا	-10.9481
▁associated	-10.9483
▁مهرجان	-10.9483
▁الأرباح	-10.9484
▁64	-10.9488
▁التصنيف	-10.9489
▁تعرض	-10.9491
▁لحل	-10.9492
▁Asian	-10.9494
▁بطارية	-10.9494
▁Messenger	-10.9499
▁Glass	-10.9499
ming	-10.9503
high	-10.9503
▁ولاية	-10.9507
▁though	-10.9508
RD	-10.9509
▁والتدريب	-10.9512
▁tasks	-10.9513
عادل	-10.9513
aw	-10.9515
▁البشري	-10.9516
▁تنطبق	-10.9517
▁logged	-10.9517
▁جزيلا	-10.9518
▁race	-10.9522
▁معبأة	-10.9524
Here	-10.9526
▁المسار	-10.9531
نشر	-10.9531
▁حفل	-10.9532
▁الدردشة	-10.9535
▁السياسات	-10.9535
▁حان	-10.9537
▁2.5	-10.9539
▁والتصميم	-10.9539
▁المستويات	-10.9541
sy	-10.9542
▁star	-10.9543
▁nation	-10.9545
▁تمكن	-10.9545
▁permanent	-10.9547
▁Door	-10.9548
era	-10.955
▁واحصل	-10.9551
▁بهدف	-10.9551
▁CON	-10.9557
نمو	-10.9558
▁helpful	-10.956
ense	-10.956
▁الملحقات	-10.9561
طبيعة	-10.9561
▁ومريحة	-10.9563
سياسة	-10.9564
▁tons	-10.9564
Of	-10.9566
▁began	-10.9566
▁سباق	-10.9567
▁Th	-10.9569
▁لوحات	-10.957
▁2:	-10.9571
▁وإعادة	-10.9571
▁clearly	-10.9573
قات	-10.9573
شرح	-10.9576
▁expand	-10.9577
▁Old	-10.958
▁تغييرات	-10.9582
▁استفسارك	-10.9584
▁إسرائيل	-10.9584
▁Fill	-10.9584
▁concerns	-10.9585
▁رموز	-10.9587
▁personnel	-10.9591
▁Would	-10.9591
ائح	-10.9593
▁plus	-10.9593
LD	-10.9593
-12	-10.9596
tel	-10.9598
قابل	-10.9599
bra	-10.96
▁grant	-10.9603
bal	-10.9605
حدد	-10.9607
▁Clinic	-10.9608
▁Bit	-10.9608
▁Vision	-10.9609
▁ثقة	-10.961
which	-10.961
▁يستحق	-10.961
▁meter	-10.961
▁eight	-10.961
▁المواضيع	-10.9611
len	-10.9613
▁تنسيق	-10.9613
tting	-10.9614
▁الضيوف	-10.9615
▁التوظيف	-10.9617
▁وسريعة	-10.9618
rag	-10.9622
▁الإمكان	-10.9625
▁Level	-10.9626
▁adapt	-10.9626
▁primary	-10.9627
▁الاستماع	-10.9627
▁المستقبلية	-10.9629
▁لديكم	-10.9631
▁حي	-10.9631
▁الأطراف	-10.9632
▁كريم	-10.9633
فض	-10.9634
▁آي	-10.9635
▁recently	-10.9638
حا	-10.9639
▁الفوز	-10.964
▁Provid	-10.964
▁دائرة	-10.9641
▁الثلاث	-10.9644
▁Week	-10.9644
▁Convention	-10.9645
rum	-10.9645
▁تسويق	-10.9645
▁37	-10.9648
▁الحقول	-10.9648
سلط	-10.9649
▁larger	-10.9649
▁البنية	-10.9653
▁الأشكال	-10.9653
▁الحيوية	-10.9655
▁لاعب	-10.9659
يخ	-10.966
▁SMS	-10.9664
نان	-10.9665
▁Looking	-10.9666
ومن	-10.9667
4.	-10.9668
▁مزيج	-10.9668
سواء	-10.9669
مدينة	-10.967
حدى	-10.9674
▁والف	-10.9674
▁المفتوحة	-10.9675
46	-10.9675
▁Comp	-10.9677
▁سائق	-10.9678
مس	-10.9678
وبة	-10.968
First	-10.968
حقق	-10.9681
▁pleasure	-10.9682
▁lack	-10.9683
▁العقار	-10.9684
ضغط	-10.9684
▁Avoid	-10.9686
▁البحري	-10.9686
▁consumers	-10.9688
ندا	-10.9691
لمعرفة	-10.9691
أنت	-10.9695
عترف	-10.9696
69	-10.9697
▁agency	-10.97
▁الشيخ	-10.9701
▁Offers	-10.9702
سد	-10.9705
▁circumstances	-10.9708
92	-10.9713
▁يبلغ	-10.9713
▁Articles	-10.9713
▁تست	-10.9715
▁branch	-10.9716
▁نو	-10.9716
▁YouTube	-10.9722
BO	-10.9723
▁قدرات	-10.9726
▁أع	-10.9727
▁لاختيار	-10.9728
▁الغرض	-10.9729
▁MT	-10.9729
tar	-10.9729
▁يتكون	-10.9729
▁مسافة	-10.9734
تحقق	-10.9737
▁Xiaomi	-10.9737
▁sweet	-10.9737
▁حاول	-10.974
▁جنيه	-10.974
حماية	-10.9742
Once	-10.9744
▁أولئك	-10.9746
▁المرافق	-10.9746
ane	-10.975
▁1999	-10.9753
▁alcohol	-10.9755
▁Leave	-10.9755
▁Baby	-10.9757
van	-10.9759
ION	-10.9761
▁Beach	-10.9762
▁التعريف	-10.9764
▁انتظار	-10.9765
▁collected	-10.9765
▁سمعة	-10.9768
▁deals	-10.9768
▁الصيد	-10.9769
▁قصير	-10.977
pr	-10.9771
▁يحب	-10.9771
▁البل	-10.9772
▁قاعة	-10.9772
▁obtained	-10.9774
▁agencies	-10.9775
ياد	-10.9775
▁مبكر	-10.9775
▁طبيعية	-10.9775
▁thus	-10.9776
▁الشاي	-10.9776
أس	-10.9777
▁meat	-10.9778
▁ho	-10.9783
▁presentation	-10.9785
▁styles	-10.9786
sen	-10.9786
فرد	-10.9788
▁بقيمة	-10.9788
▁ابحث	-10.979
▁النتيجة	-10.979
▁اسطنبول	-10.9793
▁والشركات	-10.9793
phone	-10.9796
▁دفعة	-10.9802
▁عموما	-10.9802
شم	-10.9804
▁سعيدة	-10.9805
▁مهتما	-10.9808
داء	-10.9808
▁Micro	-10.9809
اكس	-10.9812
▁Weight	-10.9812
▁أحجام	-10.9813
42	-10.9813
الس	-10.9815
▁Royal	-10.9817
اعتماد	-10.982
▁Cultural	-10.9821
تفاصيل	-10.9822
▁thinking	-10.9823
san	-10.9825
▁مرتين	-10.9825
▁occur	-10.9826
▁تسبب	-10.9826
UT	-10.9827
▁القطار	-10.9827
امة	-10.9829
ign	-10.9829
▁فنحن	-10.983
▁Museum	-10.9831
▁Reservation	-10.9831
2)	-10.9833
▁Stay	-10.9837
DC	-10.9839
ency	-10.984
▁Come	-10.9843
▁الزبائن	-10.9844
مجموع	-10.9846
▁leaders	-10.9847
8%	-10.9849
]"	-10.9849
▁تبقى	-10.9851
مصدر	-10.9853
▁المرتبطة	-10.9854
صديق	-10.9854
تداول	-10.9854
▁أت	-10.9858
▁0.5	-10.9858
-8	-10.9858
صلى	-10.9859
▁التقاط	-10.9864
▁spirit	-10.9868
تمكن	-10.9869
▁miss	-10.9869
طالما	-10.9869
▁أكياس	-10.9869
▁الصباح	-10.9869
▁آل	-10.987
ple	-10.987
▁loved	-10.9872
سنقوم	-10.9874
▁المضادة	-10.9875
rc	-10.9877
▁الأحجام	-10.9878
SL	-10.9878
▁rubber	-10.988
▁GB	-10.988
▁مريح	-10.9883
▁الالكترونية	-10.9884
▁منفصل	-10.9884
CP	-10.9885
ati	-10.9886
▁حسن	-10.9887
ration	-10.989
▁Study	-10.9891
je	-10.9892
▁poor	-10.9892
ria	-10.9893
▁representatives	-10.9893
▁مصنعنا	-10.9895
▁السل	-10.9899
▁damaged	-10.9899
▁realize	-10.9899
▁FI	-10.99
▁المقبلة	-10.99
▁Ju	-10.9901
▁وبناء	-10.9901
▁Chemical	-10.9902
▁الاستفسارات	-10.9902
▁السكنية	-10.9904
▁Manufacturer	-10.9904
▁facility	-10.9906
like	-10.9907
▁أصغر	-10.9908
▁dog	-10.991
▁ahead	-10.991
▁6)	-10.9911
▁بإمكانك	-10.9911
▁ch	-10.9918
▁تقول	-10.992
▁بدأ	-10.9921
▁bath	-10.9922
حزمة	-10.9923
▁ملاحظات	-10.9925
ضي	-10.9925
تنافس	-10.9926
▁أحكام	-10.9928
▁rating	-10.993
▁يذهب	-10.9932
غل	-10.9932
▁"7	-10.9933
▁العاملين	-10.9935
▁Give	-10.994
▁exist	-10.9941
لاف	-10.9941
▁exporting	-10.9941
صورة	-10.9943
مستوى	-10.9943
▁الدهون	-10.9944
دام	-10.9945
▁الوعي	-10.9946
▁Tower	-10.9946
▁السم	-10.9947
▁الأسلاك	-10.9948
hours	-10.9952
▁teach	-10.9953
جيل	-10.9955
يدة	-10.9956
▁وآمنة	-10.9959
▁foot	-10.9959
EX	-10.996
ندي	-10.9962
▁قفل	-10.9963
qui	-10.9963
▁evaluation	-10.9963
▁جد	-10.9963
▁Eastern	-10.9964
GE	-10.9965
▁جميعا	-10.9965
▁دع	-10.997
▁بناءً	-10.9973
▁الشهادات	-10.9973
▁المتعددة	-10.9973
▁trends	-10.9974
▁نوصي	-10.9977
link	-10.9977
وصل	-10.9978
▁Fair	-10.9978
Sorry	-10.9978
طي	-10.9979
▁expensive	-10.9982
▁consent	-10.9983
▁المنتدى	-10.9986
حركات	-10.999
▁والمعلومات	-10.999
/4	-10.9993
web	-10.9998
إلى	-11.0001
▁illegal	-11.0001
▁police	-11.0001
▁Status	-11.0001
▁إنجاز	-11.0002
▁SP	-11.0002
▁Innovation	-11.0003
▁nor	-11.0006
اتها	-11.0008
▁تقدمها	-11.0013
▁أحداث	-11.0013
شركة	-11.0013
TP	-11.0013
▁والخ	-11.0015
▁rise	-11.0016
▁مشترك	-11.0017
▁Tuesday	-11.002
▁ضرر	-11.0021
▁specialists	-11.0025
▁متقدمة	-11.003
▁بلدك	-11.0031
▁التى	-11.0032
▁وصيانة	-11.0033
▁finding	-11.0036
يع	-11.0037
سجل	-11.0039
▁قليلة	-11.0039
41	-11.0041
zi	-11.0044
▁الرطوبة	-11.0044
▁ليكون	-11.0049
▁أرض	-11.005
ele	-11.0052
LO	-11.0054
▁colour	-11.0055
▁الشرطة	-11.0055
عش	-11.0056
ليف	-11.0057
▁intended	-11.0063
▁بالإ	-11.0068
▁بالأ	-11.0068
بلغ	-11.0071
▁Singapore	-11.0072
▁الفعلي	-11.0073
▁adjusted	-11.0074
▁finally	-11.0075
▁Action	-11.0075
▁العضو	-11.0076
▁attack	-11.0076
▁affected	-11.0077
▁إسبانيا	-11.0077
▁متخصص	-11.0078
▁Fi	-11.0078
▁teaching	-11.0078
ax	-11.0079
▁gets	-11.0079
▁improved	-11.008
cent	-11.0081
▁Sch	-11.0081
▁سنكون	-11.0082
▁purchased	-11.0082
▁التدريبية	-11.0083
المنتجات	-11.0083
▁شأنها	-11.0086
kh	-11.0086
▁appreciate	-11.0087
حصل	-11.0089
Best	-11.0089
3%	-11.0092
▁"5)	-11.0092
▁التخلص	-11.0093
▁البضاعة	-11.0097
▁blessings	-11.0097
▁LCD	-11.0099
▁تقبل	-11.0101
مور	-11.0102
▁صف	-11.0104
▁القياس	-11.0105
▁Award	-11.0106
illa	-11.0107
▁ومنتجات	-11.0109
▁firm	-11.011
نين	-11.0111
▁converter	-11.0112
▁Virtual	-11.0114
▁behavior	-11.0116
▁البنوك	-11.0116
600	-11.0121
▁Arabian	-11.0124
Also	-11.0124
91	-11.0126
مدير	-11.0129
ريد	-11.013
▁mar	-11.0133
▁PayPal	-11.0135
▁reduction	-11.0136
▁يح	-11.0137
▁المطاعم	-11.0138
▁الصلبة	-11.014
▁المبادئ	-11.014
▁المهام	-11.0144
▁tried	-11.0144
ore	-11.0145
right	-11.0148
▁سر	-11.0152
▁OS	-11.0153
▁accident	-11.0154
point	-11.0154
▁windows	-11.0156
los	-11.0156
▁exact	-11.0156
▁مفيد	-11.0156
▁becomes	-11.0157
▁تويتر	-11.0157
حيا	-11.0159
▁قنوات	-11.0159
▁Talk	-11.016
vote	-11.0161
▁Its	-11.0162
الك	-11.0164
ali	-11.0164
4%	-11.0167
DR	-11.0167
▁المس	-11.017
▁الإجمالي	-11.017
▁wine	-11.0171
▁أموال	-11.0171
▁lifestyle	-11.0176
▁Transport	-11.0177
▁يهم	-11.0178
▁coverage	-11.0178
▁للا	-11.0179
▁Connect	-11.0185
▁الحمام	-11.0185
▁سوبر	-11.0186
▁والتسليم	-11.0187
ora	-11.0188
زع	-11.019
▁تستمر	-11.0191
▁موظفينا	-11.0192
▁became	-11.0193
▁الاستمتاع	-11.0194
تشريع	-11.0194
▁collaboration	-11.0194
▁Treatment	-11.0195
▁المشي	-11.0195
▁يؤثر	-11.0196
▁10-15	-11.0199
▁Directory	-11.02
▁Drive	-11.0202
ونة	-11.0203
Posted	-11.0204
مرض	-11.0208
3.	-11.0213
▁Gallery	-11.0213
▁احجز	-11.0216
▁روح	-11.0218
▁painting	-11.0219
▁مرافق	-11.0221
منطقة	-11.0221
▁Mer	-11.0221
▁Cam	-11.0221
76	-11.0221
▁لإجراء	-11.0222
▁adjustment	-11.0225
▁Je	-11.0226
Today	-11.0226
▁settings	-11.0228
أول	-11.0235
▁نظم	-11.0235
▁وأي	-11.0235
دخل	-11.0236
PT	-11.0237
▁combined	-11.0238
▁سويسرا	-11.0239
TER	-11.024
▁الزمني	-11.024
خدم	-11.0243
▁Used	-11.0245
▁الآلة	-11.0246
▁ولن	-11.0246
زة	-11.0246
▁ro	-11.0247
▁القليل	-11.0251
▁occasion	-11.0252
▁التنافسية	-11.0252
▁leadership	-11.0252
▁انتهاء	-11.0253
مواقع	-11.0253
▁exam	-11.0254
▁states	-11.0255
6%	-11.0256
▁topic	-11.0257
▁متأكد	-11.0257
بذل	-11.0257
▁da	-11.0261
▁agreed	-11.0262
▁الهوية	-11.0262
▁lifetime	-11.0262
ole	-11.0262
▁upload	-11.0263
lly	-11.0264
باء	-11.0265
▁Hav	-11.0265
مجموعة	-11.0267
▁00	-11.0268
▁٢	-11.0269
▁NA	-11.027
▁conversion	-11.0271
▁transparent	-11.0271
▁Reseller	-11.0271
▁الجامعات	-11.0271
يتي	-11.0272
▁Series	-11.0273
▁feet	-11.0274
▁مميزة	-11.0277
▁الخبرات	-11.0278
oz	-11.0279
رتب	-11.028
صناعة	-11.0282
▁مستقر	-11.0287
دمج	-11.0287
▁dates	-11.0289
▁النشرة	-11.0291
▁administration	-11.0291
▁handling	-11.0294
▁الهامة	-11.0299
Over	-11.0301
▁sight	-11.0302
إنشاء	-11.0304
▁الفحص	-11.0306
▁Spring	-11.0306
▁مقدمة	-11.0308
ination	-11.0308
▁الزيت	-11.0309
▁52	-11.031
▁السا	-11.0311
▁تقسيم	-11.0311
▁shipped	-11.0311
▁السحب	-11.0312
▁hundreds	-11.0312
▁90%	-11.0313
▁المصرية	-11.0314
▁Rate	-11.0314
▁Did	-11.0315
▁File	-11.0316
▁تتيح	-11.0318
▁Everything	-11.0321
▁القديم	-11.0323
bol	-11.0325
▁pa	-11.0328
▁chair	-11.0331
▁مجلة	-11.0331
Pre	-11.0332
▁weekend	-11.0336
قص	-11.0337
mat	-11.0337
▁لحام	-11.0337
▁didn	-11.034
▁Cha	-11.0341
▁Competitive	-11.0342
▁ease	-11.0342
▁يمكنه	-11.0342
▁شامل	-11.0344
▁beach	-11.0346
شب	-11.0346
▁VPN	-11.0347
▁owners	-11.035
مون	-11.0353
▁Sort	-11.0354
▁Self	-11.0356
▁بور	-11.0357
▁adopt	-11.0357
▁rule	-11.0358
▁للاختيار	-11.0359
إضافة	-11.0359
▁Plus	-11.036
▁النصائح	-11.036
including	-11.036
▁رأيك	-11.036
أحدث	-11.0363
▁ثقافة	-11.0364
▁Strong	-11.0366
▁Fashion	-11.0366
gel	-11.0367
▁sugar	-11.037
ترا	-11.0371
▁duty	-11.0371
▁النقدية	-11.0371
▁المد	-11.0371
▁الأخطاء	-11.0373
CR	-11.0378
▁aluminum	-11.0381
▁مصنعين	-11.0382
▁seem	-11.0384
▁85	-11.0384
ending	-11.0385
▁Lead	-11.0387
cut	-11.0387
▁platforms	-11.0389
▁الأليفة	-11.039
▁dangerous	-11.039
▁يع	-11.039
hour	-11.0391
▁adult	-11.0392
▁generally	-11.0394
زار	-11.0396
ju	-11.0397
lock	-11.0398
▁explain	-11.0399
▁الخلفية	-11.04
des	-11.04
▁بالتعاون	-11.04
lk	-11.0401
▁Sam	-11.0404
pack	-11.0404
▁والمعدات	-11.0408
▁الجن	-11.0408
نظام	-11.0412
▁الأحذية	-11.0414
▁ويندوز	-11.0421
date	-11.0422
▁والعديد	-11.0423
▁greatly	-11.0425
▁5-7	-11.0426
▁المنخفض	-11.0426
روم	-11.0427
▁كور	-11.0427
Up	-11.0429
▁DVD	-11.0429
▁subscription	-11.0429
▁j	-11.0433
▁ختم	-11.0433
▁الحظ	-11.0434
Thanks	-11.0437
▁يتوفر	-11.0438
▁الكو	-11.044
▁complaints	-11.0441
▁مرت	-11.0442
▁الجزائر	-11.0444
يقع	-11.0444
▁الولادة	-11.0449
▁doubt	-11.0449
▁RO	-11.045
قرار	-11.0452
▁أزرق	-11.0454
52	-11.0455
▁صناديق	-11.0456
▁Kong	-11.0457
▁لاختبار	-11.0458
▁رائدة	-11.046
▁المطاط	-11.046
▁المختصة	-11.0461
▁Tags	-11.0465
▁parameters	-11.0467
▁library	-11.0469
▁أنماط	-11.047
▁preferred	-11.047
▁acid	-11.047
▁ركوب	-11.0471
▁موزع	-11.0474
▁المسؤول	-11.0479
oon	-11.048
▁الصحافة	-11.048
▁bill	-11.0487
▁whose	-11.0487
▁الشر	-11.0488
▁identity	-11.0489
▁History	-11.0489
▁bought	-11.0489
▁متوافق	-11.0493
ella	-11.0493
▁ضع	-11.0494
rn	-11.0494
▁الجمهور	-11.0495
▁مبتكرة	-11.0496
راس	-11.0497
▁الحديقة	-11.0497
▁جا	-11.0498
▁نيويورك	-11.05
2%	-11.0501
care	-11.0502
▁Million	-11.0503
انا	-11.0504
▁Author	-11.0505
▁meetings	-11.0507
3:	-11.0508
▁المكسيك	-11.0509
▁saw	-11.051
▁آلاف	-11.051
▁عشرة	-11.0511
▁تتكون	-11.0512
lon	-11.0513
▁حالياً	-11.0513
OP	-11.0514
▁ض	-11.0516
▁نود	-11.0517
▁Weather	-11.0522
▁نافذة	-11.0522
/5	-11.0523
طو	-11.0523
تناسب	-11.0525
▁CNC	-11.0525
▁ميل	-11.0527
▁تشكل	-11.0527
▁ملايين	-11.0529
▁century	-11.0529
▁crisis	-11.0529
▁والمؤسسات	-11.0529
don	-11.0531
▁Once	-11.0531
VE	-11.0533
▁بأمان	-11.0533
سك	-11.0534
حسب	-11.0537
▁دعوة	-11.0538
▁تل	-11.0539
▁قص	-11.054
▁lessons	-11.0541
▁تجارة	-11.0544
just	-11.0545
las	-11.0545
فيد	-11.0546
cer	-11.0546
▁AT	-11.0549
▁OOO	-11.0549
▁reducing	-11.0549
▁الجماعة	-11.0549
▁duration	-11.055
▁adding	-11.0553
▁الهدايا	-11.0555
▁Always	-11.0556
▁Plant	-11.0557
▁فائدة	-11.056
ics	-11.0563
94	-11.0564
▁المحول	-11.0566
لان	-11.0567
▁supplied	-11.057
Trade	-11.057
▁stations	-11.0572
▁productivity	-11.0572
▁pl	-11.0573
▁أرخص	-11.0575
shi	-11.0575
▁API	-11.0576
▁طلاب	-11.0577
▁birth	-11.0582
sse	-11.0586
▁Belgium	-11.059
▁Cyprus	-11.059
▁التحكيم	-11.059
▁removed	-11.0591
▁character	-11.0593
▁Solar	-11.0594
▁Kids	-11.0595
▁prayer	-11.0595
▁PR	-11.0599
▁Speed	-11.0601
machine	-11.0603
عداد	-11.0604
ضمان	-11.0612
▁Warranty	-11.0614
lat	-11.0615
▁15-20	-11.0618
ators	-11.0621
▁مكتبة	-11.0621
▁أمني	-11.0624
rit	-11.0624
▁"10.	-11.0625
▁الممتازة	-11.0625
▁الكفاية	-11.063
▁مقاطع	-11.0632
▁camp	-11.0633
نشأ	-11.0633
fl	-11.0637
▁MI	-11.0642
Main	-11.0644
▁Cap	-11.0645
▁مقر	-11.0646
▁الأس	-11.0646
▁الترويجية	-11.0648
▁replaced	-11.0649
▁sessions	-11.0649
edu	-11.065
▁Pakistan	-11.0651
▁kept	-11.0651
▁الفتيات	-11.0651
▁اليمن	-11.0653
▁Australian	-11.0654
ses	-11.0655
▁loan	-11.0656
▁ورق	-11.0657
▁signed	-11.0661
▁إرسالها	-11.0662
▁Certification	-11.0662
▁دقيق	-11.0663
▁للتنمية	-11.0666
rat	-11.0667
▁الأبد	-11.0667
▁تصاميم	-11.0668
▁وفق	-11.0671
▁violence	-11.0671
▁تقريبًا	-11.0671
▁وبعض	-11.0671
▁Pan	-11.0672
▁التجزئة	-11.0674
▁تتلقى	-11.0675
▁bathroom	-11.0676
▁task	-11.0676
▁والن	-11.0678
IF	-11.0678
▁والاتصالات	-11.0681
▁limits	-11.0682
▁شا	-11.0684
▁seller	-11.0684
▁examples	-11.0686
▁رائحة	-11.0688
▁مول	-11.0689
▁الدخل	-11.069
▁statistics	-11.0691
▁Operated	-11.0692
▁serving	-11.0692
▁positions	-11.0693
▁للحد	-11.0694
RU	-11.0696
▁للأشخاص	-11.0696
حرص	-11.0696
▁mark	-11.0697
▁منتدى	-11.0697
▁اتفاق	-11.0697
عينة	-11.0698
▁lots	-11.0699
▁الفوائد	-11.07
▁apartments	-11.0703
▁عظيم	-11.0703
63	-11.0703
▁refugees	-11.0705
Whether	-11.0706
▁correctly	-11.0707
▁حظا	-11.0707
▁الدورات	-11.0707
▁نسيت	-11.0708
Th	-11.0708
▁كلها	-11.0708
La	-11.0709
انات	-11.071
stan	-11.071
▁Reduce	-11.071
▁أصدقائك	-11.0712
▁wife	-11.0712
▁مثال	-11.0714
▁تتعلق	-11.0715
some	-11.0715
▁kg	-11.0717
▁شعور	-11.0719
▁المستوردة	-11.0719
▁الملحق	-11.072
▁ذ	-11.072
راء	-11.0721
▁initiatives	-11.0721
chat	-11.0722
▁Screen	-11.0723
▁إيجابي	-11.0725
▁substances	-11.0729
zhou	-11.0731
صر	-11.0731
▁Cash	-11.0732
▁Czech	-11.0732
▁portfolio	-11.0732
▁hit	-11.0735
▁الطائرة	-11.0736
دت	-11.0739
tter	-11.0742
▁كوم	-11.0742
▁للمشاركة	-11.0743
▁تضع	-11.0743
▁فور	-11.0744
▁شعر	-11.0744
▁الكلمة	-11.0745
While	-11.0747
▁إذن	-11.0747
▁لسنة	-11.0747
▁والابتكار	-11.0748
▁acc	-11.0751
▁examination	-11.0753
▁Polish	-11.0755
ea	-11.0755
عين	-11.0755
▁تشير	-11.0756
▁يشعر	-11.0759
rant	-11.0761
dent	-11.0762
▁سبق	-11.0762
▁مضمونة	-11.0764
▁usual	-11.0765
-15	-11.0766
ender	-11.0767
▁تملك	-11.0767
الب	-11.0768
ned	-11.0769
▁المجتمعات	-11.0771
▁excellence	-11.0773
▁welding	-11.0774
▁نستطيع	-11.0774
ئة	-11.0774
▁وق	-11.0774
اسي	-11.0776
▁exp	-11.0776
▁accessible	-11.0777
جت	-11.0778
▁Guarantee	-11.0778
lor	-11.0779
▁yes	-11.0781
2,	-11.0781
▁العدد	-11.0781
▁الحر	-11.0782
view	-11.0784
▁وإنتاج	-11.0788
كسب	-11.0789
▁institution	-11.079
▁ظهور	-11.0792
رون	-11.0792
ped	-11.0794
▁العقارية	-11.0795
مد	-11.0795
▁البيضاء	-11.0795
حد	-11.0796
▁يتجاوز	-11.0797
قياس	-11.0798
▁keeping	-11.08
▁للتغيير	-11.0802
▁إمدادات	-11.0803
▁2017.	-11.0803
▁بأكملها	-11.0803
▁frequency	-11.0803
▁السباحة	-11.0804
نقل	-11.0805
▁البدنية	-11.0807
sol	-11.0808
عي	-11.0813
▁boxes	-11.0813
يري	-11.0813
HD	-11.0815
▁License	-11.0815
▁evidence	-11.0815
▁Results	-11.0815
ject	-11.0818
▁cream	-11.0819
wood	-11.0819
▁يسبب	-11.082
pu	-11.0821
▁الأنظمة	-11.0822
▁remains	-11.0823
▁استشارة	-11.0823
▁وفعالة	-11.0825
▁choices	-11.0826
محاسب	-11.0826
▁عليهم	-11.0827
▁العسكرية	-11.0827
▁بق	-11.0827
▁محلية	-11.0833
xi	-11.0833
تنسيق	-11.0834
قيمة	-11.0834
▁female	-11.0835
▁attempt	-11.0836
▁اتبع	-11.0838
▁السلوك	-11.0839
▁الجمع	-11.0839
▁كار	-11.084
▁Source	-11.0841
cha	-11.0844
card	-11.0845
فصل	-11.0846
▁dose	-11.0847
▁MS	-11.0848
▁وأيضا	-11.0849
▁constant	-11.085
▁مي	-11.0851
▁ووضع	-11.0851
▁legislation	-11.0856
▁spray	-11.0857
▁أردت	-11.0857
▁charged	-11.0857
▁مقبولة	-11.0858
▁Storage	-11.0858
▁0.1	-11.0858
▁أحتاج	-11.086
▁described	-11.0865
▁العنف	-11.0865
بون	-11.0865
▁sport	-11.0867
▁الثلاثاء	-11.0868
▁Description	-11.0868
▁Wo	-11.087
▁efficiently	-11.0873
▁sheet	-11.0874
Each	-11.0876
▁Avenue	-11.0877
▁elegant	-11.0877
▁القصوى	-11.0877
رئيس	-11.0877
▁Garden	-11.0877
▁strengthen	-11.0877
▁الأطباء	-11.0878
▁الصغير	-11.0879
▁cur	-11.0879
▁Mark	-11.088
▁VI	-11.0883
▁حضور	-11.0884
▁q	-11.0885
▁Question	-11.0887
▁dollars	-11.0887
▁Linux	-11.0889
MB	-11.0892
▁لموقع	-11.0894
▁Tu	-11.0894
▁Better	-11.0896
▁روابط	-11.0898
Hadith	-11.0898
rin	-11.0903
▁صباحاً	-11.0903
▁forum	-11.0904
▁والولايات	-11.0904
شبكة	-11.0905
▁إدراج	-11.0908
▁عقار	-11.091
▁ring	-11.0911
▁الشرقية	-11.0912
burg	-11.0913
ثار	-11.0913
TY	-11.0914
لن	-11.0916
فد	-11.0918
▁thickness	-11.0919
▁تستغرق	-11.092
ase	-11.092
▁BO	-11.0923
▁pure	-11.0924
▁وهنا	-11.0926
بري	-11.0926
▁valve	-11.0926
نوع	-11.0926
HR	-11.0926
كرر	-11.093
▁تقلق	-11.093
فقط	-11.0931
▁وتم	-11.0932
▁الأمنية	-11.0936
▁rid	-11.0936
▁funding	-11.0937
43	-11.0937
▁Jobs	-11.0937
▁formula	-11.0939
▁contracts	-11.0939
▁replied	-11.094
▁island	-11.094
▁دم	-11.0942
▁سداد	-11.0942
جيب	-11.0943
▁مضخة	-11.0945
▁exceptional	-11.0946
▁معرفته	-11.0946
وكس	-11.0947
▁وست	-11.0948
Ra	-11.0948
▁applying	-11.0948
▁الروبوت	-11.0949
واصل	-11.0951
SU	-11.0951
PM	-11.0951
قف	-11.0951
▁wa	-11.0953
عات	-11.0954
▁doctors	-11.0955
WA	-11.0955
سق	-11.0956
such	-11.0957
sis	-11.096
▁قرأت	-11.0961
▁father	-11.0961
▁لمنتجات	-11.0961
ale	-11.0962
▁وجبات	-11.0963
حجز	-11.0963
Some	-11.0965
design	-11.0966
▁SC	-11.0967
▁shortly	-11.097
▁شاحنة	-11.097
▁تضمين	-11.097
▁UL	-11.097
▁ولدينا	-11.0971
لك	-11.0972
▁تشرين	-11.0973
▁الإسلامي	-11.0974
VA	-11.0975
▁equipments	-11.0976
▁OUR	-11.0976
▁Med	-11.0977
▁بصورة	-11.0977
ريك	-11.0978
wear	-11.0978
▁متكاملة	-11.0979
ذي	-11.0982
▁سيقوم	-11.0984
▁الشعبية	-11.0985
▁البرلمان	-11.0986
▁تلقائيًا	-11.0986
▁لنقل	-11.0987
-4	-11.0993
▁رفض	-11.0993
▁مطلوبة	-11.0993
مات	-11.0994
▁أب	-11.0996
▁Maximum	-11.0997
حجم	-11.0998
▁الأكاديمية	-11.0998
About	-11.1
قاد	-11.1002
▁110	-11.1002
▁Netherlands	-11.1003
▁convenience	-11.1003
▁ملتزمون	-11.1003
▁الغربية	-11.1004
▁وهذه	-11.1004
مال	-11.1005
لعب	-11.1006
▁sufficient	-11.1006
lay	-11.1006
سكو	-11.1008
استعمال	-11.1009
▁بينها	-11.101
▁Admin	-11.101
rr	-11.101
▁الوحدات	-11.1011
قار	-11.1013
▁العملة	-11.1013
▁للتعاون	-11.1014
طن	-11.1014
▁ice	-11.1014
▁كشف	-11.1016
▁wholesale	-11.1017
غلق	-11.1017
كتب	-11.1018
▁للطلب	-11.1019
▁الماس	-11.1019
رض	-11.1022
Su	-11.1023
▁input	-11.1026
Rating	-11.1027
▁الأساس	-11.1028
▁أساسية	-11.1028
ماء	-11.1029
▁التصاميم	-11.103
nan	-11.1032
▁التدفئة	-11.1033
▁Temperature	-11.1035
▁indicate	-11.1035
▁التقديم	-11.1036
▁اليورو	-11.1038
▁perfectly	-11.1038
▁rapid	-11.1039
رجع	-11.104
▁الكاميرا	-11.1041
FI	-11.1044
▁truly	-11.1045
▁Court	-11.1045
▁المنشأ	-11.1045
يته	-11.1046
عان	-11.1047
▁clock	-11.1048
▁determined	-11.1048
بناء	-11.1049
▁الديكور	-11.1049
▁لحقوق	-11.105
▁displayed	-11.1051
▁recognized	-11.1052
▁مزدوج	-11.1052
wan	-11.1053
▁operator	-11.1054
▁التزام	-11.1054
reg	-11.1055
▁Station	-11.1055
▁"1,	-11.1055
اقت	-11.1058
ترو	-11.1059
▁mill	-11.1061
▁Studio	-11.1063
سطح	-11.1065
PORT	-11.1065
▁completion	-11.1066
▁humanitarian	-11.1066
رغب	-11.1069
▁Indonesia	-11.107
▁العنصر	-11.1071
▁زاوية	-11.1071
even	-11.1072
نتيجة	-11.1073
▁للبحث	-11.1076
▁علبة	-11.1077
▁replica	-11.1078
▁Apps	-11.1078
▁radio	-11.1078
▁prompt	-11.1081
▁Promotion	-11.1081
▁HA	-11.1086
▁Short	-11.1086
▁teams	-11.1086
سخ	-11.1086
▁القرآن	-11.1087
▁الكوكيز	-11.1087
▁الفعالة	-11.1087
▁Bur	-11.1088
service	-11.1094
▁Sharjah	-11.1095
▁enterprises	-11.1096
▁الخلفي	-11.1096
▁belt	-11.1096
▁محطات	-11.1098
▁complaint	-11.11
ادات	-11.11
▁Earth	-11.1101
▁التمتع	-11.1102
ola	-11.1104
وينبغي	-11.1105
▁ممكنة	-11.1105
wel	-11.1106
▁مثير	-11.1108
▁kit	-11.1111
▁brings	-11.1111
Read	-11.1112
رى	-11.1113
▁لمن	-11.1116
▁الشعور	-11.1117
▁بالاتصال	-11.1118
▁Pal	-11.1118
▁قادر	-11.1119
▁بول	-11.112
درس	-11.1123
▁والدولية	-11.1125
▁residents	-11.1126
▁تمتلك	-11.1127
87	-11.1128
بك	-11.1128
ls	-11.1129
▁سمك	-11.1129
OU	-11.1129
▁Fo	-11.113
▁sections	-11.113
▁cabinet	-11.1131
▁village	-11.1132
ليك	-11.1136
▁سيما	-11.1138
▁إظهار	-11.1138
مصنع	-11.1138
▁Malaysia	-11.1139
▁أفلام	-11.1142
▁مدونة	-11.1142
RS	-11.1145
ERS	-11.1148
▁طعام	-11.1151
▁القدرات	-11.1151
▁Without	-11.1152
▁outstanding	-11.1153
og	-11.1154
▁اللاعبين	-11.1154
صم	-11.1155
▁Languages	-11.1158
▁التغليف	-11.1159
▁Party	-11.1162
▁سانت	-11.1165
▁بشر	-11.1166
عب	-11.1166
▁Solution	-11.1168
▁Banking	-11.1169
ّا	-11.1173
▁scheme	-11.1173
▁الزوار	-11.1173
▁oem	-11.1174
▁matters	-11.1174
▁performed	-11.1175
month	-11.1179
▁whatever	-11.1179
▁Certificates	-11.118
▁تجاه	-11.1182
▁audio	-11.1182
▁attach	-11.1182
▁جيدًا	-11.1183
▁Accessories	-11.1184
▁سيئة	-11.1186
▁ads	-11.1188
▁unlimited	-11.1194
▁العقاري	-11.1194
▁يختلف	-11.1194
▁Common	-11.1195
▁Communication	-11.1196
▁Christian	-11.1196
▁Poland	-11.1197
▁Villa	-11.1197
▁workshops	-11.1198
▁التأشيرة	-11.1198
▁Reg	-11.1199
▁Stock	-11.12
▁السرير	-11.12
تعهد	-11.1201
▁reservation	-11.1203
▁مدن	-11.1204
▁contribution	-11.1204
▁Log	-11.1206
▁burn	-11.1206
▁نست	-11.1206
▁حملة	-11.1207
lies	-11.1208
▁"10	-11.1211
▁Learning	-11.1212
▁وكفاءة	-11.1214
▁Subscribe	-11.1214
▁entertainment	-11.1216
▁financing	-11.1216
▁الدراجات	-11.1216
▁الذاكرة	-11.1216
▁FA	-11.122
▁heard	-11.122
0.000	-11.1221
▁stone	-11.1223
▁Administration	-11.1224
▁chemicals	-11.1224
▁التصوير	-11.1225
▁Hours	-11.1227
▁Communications	-11.1227
رجل	-11.1229
FF	-11.1232
عارض	-11.1233
▁زي	-11.1233
الموقع	-11.1234
▁consideration	-11.1234
▁hearing	-11.1236
▁Islam	-11.1237
aging	-11.1237
▁للعثور	-11.1237
▁Philips	-11.1237
▁meals	-11.1238
▁يمثل	-11.1241
اليوم	-11.1242
▁تمثل	-11.1243
eh	-11.1246
▁المجموعات	-11.1247
▁instrument	-11.1248
see	-11.1253
▁Bra	-11.1253
▁لمشاهدة	-11.1253
▁الرياح	-11.1259
5.	-11.126
ونها	-11.1261
يرا	-11.1264
▁مستشار	-11.1265
▁لأننا	-11.1268
▁ليتم	-11.127
▁يناسب	-11.1272
▁عربي	-11.1273
ell	-11.1274
▁Soft	-11.1275
▁مفاتيح	-11.1276
▁sl	-11.1276
▁إلي	-11.1276
▁عصر	-11.1278
▁shops	-11.1278
طريق	-11.128
▁transparency	-11.128
▁Night	-11.1281
ulate	-11.1282
▁household	-11.1283
▁نادي	-11.1283
ail	-11.1284
any	-11.1284
▁مخطط	-11.1285
▁hi	-11.1287
▁bear	-11.1288
▁savings	-11.129
rus	-11.1292
▁اخر	-11.1294
matic	-11.1296
▁Knowledge	-11.1298
▁الشامل	-11.13
▁quantities	-11.1302
Next	-11.1302
▁Child	-11.1302
▁تسرب	-11.1303
▁measure	-11.1304
راقب	-11.1306
▁Trust	-11.1306
▁فو	-11.1308
▁الأصل	-11.131
▁سان	-11.131
▁trend	-11.1312
▁البسيطة	-11.1312
▁صعوبة	-11.1313
▁طلاء	-11.1313
▁introduce	-11.1314
ski	-11.1314
▁edge	-11.1315
فخر	-11.1316
▁Mediterranean	-11.1317
▁implemented	-11.1319
yp	-11.1323
▁قيود	-11.1324
▁شبكات	-11.1324
▁الطالب	-11.1324
طف	-11.1325
العربية	-11.1325
FC	-11.1325
▁mis	-11.1326
▁الباردة	-11.1326
▁Link	-11.1328
▁AN	-11.133
▁عنا	-11.133
▁فال	-11.1331
▁son	-11.1332
▁الثانوية	-11.1332
ison	-11.1334
▁fi	-11.1334
حوا	-11.1334
▁جهة	-11.1336
▁يتوافق	-11.1336
جهاز	-11.134
فس	-11.1341
▁تشارك	-11.1342
▁Filter	-11.1346
▁ensuring	-11.1346
▁arm	-11.1346
▁12.	-11.1347
برا	-11.1348
UM	-11.1353
▁الجملة	-11.1354
mic	-11.1354
pp	-11.1355
▁Bag	-11.1355
▁تسعى	-11.1356
مساهم	-11.1358
▁وخ	-11.1359
▁Even	-11.1359
▁reward	-11.136
▁urgent	-11.1362
▁والخارج	-11.1362
عمال	-11.1363
lam	-11.1363
▁Could	-11.1365
▁Changed	-11.1366
▁pretty	-11.1368
▁Housing	-11.1368
▁دراسات	-11.1368
▁1-3	-11.1368
▁قيم	-11.1369
نموذج	-11.1373
bs	-11.1375
▁Radio	-11.1375
▁يجري	-11.1377
▁وصل	-11.1377
ches	-11.1378
▁لتر	-11.1378
▁شو	-11.1378
▁provision	-11.138
▁---	-11.138
▁indoor	-11.1382
▁Modern	-11.1385
SD	-11.1388
▁adventure	-11.1389
▁الآلاف	-11.139
▁ha	-11.139
▁مبادرة	-11.1396
وتر	-11.1396
▁التشخيص	-11.1397
▁traders	-11.1398
▁والطاقة	-11.1399
▁إعلانات	-11.1401
حاول	-11.1402
▁pattern	-11.1402
تغير	-11.1405
تعلم	-11.1405
باط	-11.1405
▁seal	-11.1406
▁Bio	-11.1406
ائع	-11.1407
nit	-11.1407
she	-11.1407
▁جوائز	-11.1409
▁comparison	-11.1411
▁brief	-11.1412
▁التبديل	-11.1412
▁Through	-11.1413
AGE	-11.1413
جرة	-11.1414
dom	-11.1414
▁فاي	-11.1415
لى	-11.1415
▁الاختبارات	-11.1418
biz	-11.1418
▁تخصيصها	-11.1418
طا	-11.1419
▁welcomed	-11.142
▁critical	-11.142
ux	-11.1421
▁تفتيش	-11.1423
▁employee	-11.1424
▁الألم	-11.1425
▁صالحة	-11.1425
▁mu	-11.1426
▁لآخر	-11.1426
▁ride	-11.1431
▁situations	-11.1432
▁atmosphere	-11.1433
▁Medicine	-11.1433
ميزات	-11.1433
▁talking	-11.1433
▁broad	-11.1434
▁score	-11.1435
▁ar	-11.1436
cho	-11.144
▁الرحلات	-11.1442
▁subscribe	-11.1445
قارن	-11.1446
▁ve	-11.1449
▁وقف	-11.145
▁الإست	-11.1452
▁بديل	-11.1452
تكامل	-11.1452
▁يطلب	-11.1453
▁mould	-11.1455
▁أنفسنا	-11.1455
▁كرتون	-11.1455
▁معتمدة	-11.1458
▁المظهر	-11.1461
▁تلفزيون	-11.1462
توصيل	-11.1462
tis	-11.1463
▁كجم	-11.1469
▁الزمن	-11.1471
▁returned	-11.1472
▁mix	-11.1474
▁fo	-11.1475
▁college	-11.1477
▁عائلة	-11.1478
▁والشروط	-11.1478
▁managed	-11.1481
▁الضوضاء	-11.1482
down	-11.1483
دّ	-11.1483
▁Off	-11.1485
▁لتحميل	-11.1485
▁الانتاج	-11.1486
▁Customized	-11.1487
▁المبنى	-11.1487
ياء	-11.1489
▁التحديث	-11.1492
رام	-11.1493
▁focused	-11.1493
▁Think	-11.1493
▁الفريدة	-11.1494
▁straight	-11.15
▁الأسماك	-11.15
▁وش	-11.15
▁technicians	-11.15
▁شحنها	-11.1501
▁Gar	-11.1502
bil	-11.1503
▁أح	-11.1503
▁خطاب	-11.1506
▁لدفع	-11.1508
عم	-11.151
get	-11.1511
الف	-11.1512
ball	-11.1515
وفر	-11.1516
▁تصريح	-11.1519
Product	-11.1519
▁audit	-11.152
▁جون	-11.1526
Part	-11.1529
▁النباتات	-11.1531
▁Sheikh	-11.1532
ده	-11.1532
▁released	-11.1533
▁الحليب	-11.1534
▁Sh	-11.1534
▁instruction	-11.1537
حكم	-11.154
▁لاحتياجات	-11.154
TU	-11.154
▁scope	-11.1542
▁husband	-11.1544
▁religion	-11.1544
▁المعيشة	-11.1544
▁pricing	-11.1544
▁root	-11.1544
▁trained	-11.1547
▁الإفطار	-11.1547
▁اختياري	-11.1549
▁withdrawal	-11.1551
▁meets	-11.1553
▁Holding	-11.1555
▁لتغيير	-11.1555
4:	-11.1561
fu	-11.1561
▁فعله	-11.1561
▁isn	-11.1561
▁مكاتب	-11.1563
▁GO	-11.1563
▁differences	-11.1563
▁التحديثات	-11.1564
▁%	-11.1566
▁Tra	-11.1566
▁definitely	-11.1566
▁IC	-11.1566
▁inner	-11.1567
▁becoming	-11.157
ied	-11.157
▁زراعة	-11.1573
▁التجربة	-11.1575
▁خزان	-11.1577
ova	-11.1583
ء	-11.1583
▁ستجد	-11.1584
رخ	-11.1588
أطفال	-11.1588
▁للنساء	-11.1589
▁المنازل	-11.1589
▁تخطيط	-11.1589
▁نشرت	-11.1589
كثير	-11.159
▁Ensure	-11.159
▁Mini	-11.1591
ese	-11.1592
▁صلة	-11.1593
▁desire	-11.1593
▁prevention	-11.1594
App	-11.1595
Mar	-11.1597
ايت	-11.1597
iss	-11.1597
▁TT	-11.1598
▁honor	-11.1599
▁millions	-11.1599
هب	-11.16
▁pet	-11.1602
▁hospitals	-11.1603
▁04	-11.1604
وة	-11.1604
موقع	-11.1607
▁letters	-11.1608
IR	-11.161
▁component	-11.161
▁agriculture	-11.1611
▁symbol	-11.1611
▁Summer	-11.1611
سيتم	-11.1611
gy	-11.1612
▁expenses	-11.1612
EST	-11.1613
▁التكيف	-11.1614
▁منصات	-11.1617
شتر	-11.1619
▁رخصة	-11.1619
▁Usage	-11.162
▁تعيش	-11.1621
يمي	-11.1622
gram	-11.1623
▁dimensions	-11.1624
TT	-11.1627
▁Print	-11.1629
ack	-11.1631
▁Moscow	-11.1633
▁smartphone	-11.1634
▁السكر	-11.1635
ثي	-11.1635
▁Nu	-11.1636
▁آخرين	-11.1637
Web	-11.1638
▁بعضها	-11.164
▁15%	-11.1642
إصدار	-11.1642
▁مز	-11.1643
▁شنغهاي	-11.1644
▁الاستمرار	-11.1644
نتائج	-11.1647
▁بدعم	-11.1647
▁Silver	-11.1647
تفوق	-11.1648
نشاط	-11.1651
▁discounts	-11.1651
-19	-11.1651
▁route	-11.1653
▁bu	-11.1655
▁جاء	-11.1655
▁الواضح	-11.1656
▁diverse	-11.1656
▁affordable	-11.1657
▁متن	-11.1657
▁ثاني	-11.1657
KG	-11.1658
▁tourist	-11.1658
وسع	-11.166
▁بري	-11.1661
▁Programs	-11.1663
▁إيجابية	-11.1664
▁قريب	-11.1664
▁CAN	-11.1665
▁Heat	-11.1666
▁classes	-11.1666
▁الأسر	-11.1666
▁Students	-11.1668
-7	-11.1669
▁وجنوب	-11.1669
ath	-11.1671
▁Custom	-11.1675
▁speaking	-11.1677
▁Mohammed	-11.1678
▁الحمراء	-11.1678
▁الامتدادات	-11.1678
yn	-11.1679
▁الإقليمية	-11.1679
تمر	-11.1682
MC	-11.1682
نود	-11.1685
▁award	-11.1685
▁للعب	-11.1685
▁قدمت	-11.1686
▁الشارقة	-11.1689
باقي	-11.169
▁التحول	-11.1691
▁لخلق	-11.1693
▁granted	-11.1694
▁IM	-11.1695
▁أسماء	-11.1698
▁helped	-11.1699
▁القصيرة	-11.1699
▁assurance	-11.1701
▁شركائنا	-11.1701
▁والمتوسطة	-11.1701
▁25%	-11.1701
▁conducted	-11.1702
▁FAQ	-11.1702
قترح	-11.1702
نفس	-11.1703
▁الضرر	-11.1705
▁نحتاج	-11.1705
Mi	-11.1705
▁السرطان	-11.1709
▁تغذية	-11.1709
▁circuit	-11.171
▁السفن	-11.1713
▁profits	-11.1713
▁مسبق	-11.1714
▁والبيئة	-11.1714
ii	-11.1717
▁Thailand	-11.1717
سابق	-11.172
9%	-11.1721
▁providers	-11.1721
رسوم	-11.1722
lab	-11.1722
▁إتصل	-11.1723
▁Class	-11.1723
ene	-11.1723
▁capabilities	-11.1724
Are	-11.1725
حام	-11.1726
حظى	-11.1726
▁سلس	-11.1726
فات	-11.1727
▁الفائدة	-11.1729
▁للتجارة	-11.173
▁لتنفيذ	-11.173
▁VIP	-11.1732
78	-11.1734
▁الرسومات	-11.1735
▁Partners	-11.1737
▁والإنتاج	-11.1738
▁المل	-11.1738
riv	-11.1738
مشاهدة	-11.174
▁المطر	-11.174
▁عد	-11.1742
وص	-11.1745
▁طيران	-11.1746
▁lift	-11.1747
▁التذاكر	-11.1747
▁مبدأ	-11.1747
خو	-11.175
▁وسهولة	-11.1751
▁shower	-11.1751
▁Cur	-11.1752
▁40%	-11.1752
▁يرام	-11.1753
فون	-11.1759
▁المنح	-11.1761
▁بى	-11.1763
▁told	-11.1764
قيد	-11.1764
cor	-11.1765
ليل	-11.1765
▁بإمكان	-11.1767
▁لكمية	-11.1767
▁يمكنهم	-11.1768
▁brought	-11.1769
▁twice	-11.1769
▁dinner	-11.1769
▁URL	-11.1769
▁الحكم	-11.177
str	-11.177
▁Girls	-11.1771
how	-11.1771
▁الخامس	-11.1773
▁متناول	-11.1774
73	-11.1779
▁Eco	-11.178
اطفال	-11.178
قارب	-11.1781
▁keys	-11.1782
زن	-11.1783
خار	-11.1784
▁تتميز	-11.1784
▁Peace	-11.1786
▁slow	-11.1788
lum	-11.1789
▁foods	-11.1789
▁bra	-11.1791
▁mouth	-11.1792
▁إكمال	-11.1792
▁tree	-11.1793
▁المقرر	-11.1793
▁planet	-11.1794
▁المواطنين	-11.1797
مار	-11.1797
EE	-11.1798
ترجم	-11.1798
▁inspect	-11.1799
yan	-11.1799
▁organized	-11.18
▁mini	-11.1801
▁الترفيه	-11.1801
▁TNT	-11.1801
press	-11.1802
▁عقود	-11.1803
▁cup	-11.1803
فاد	-11.1805
▁تجمع	-11.1805
plan	-11.1805
▁الشهرية	-11.1806
tre	-11.1807
▁وإن	-11.1807
▁ne	-11.1807
▁element	-11.1809
▁فان	-11.181
▁يريدون	-11.1813
تخلص	-11.1813
avi	-11.1814
▁بقدر	-11.1817
▁gear	-11.1817
▁posts	-11.1818
▁الجزيرة	-11.1818
فهم	-11.1822
▁السكك	-11.1822
iff	-11.1825
▁كاميرا	-11.1825
▁Square	-11.1825
▁discussed	-11.1826
▁واختبار	-11.1826
▁gr	-11.1827
الا	-11.1828
▁gifts	-11.1832
▁بحر	-11.1832
لند	-11.1833
▁موافقة	-11.1835
▁Feel	-11.1836
بعض	-11.1836
▁فرض	-11.1842
gr	-11.1843
▁enables	-11.1844
▁تجارب	-11.1845
▁مقابلة	-11.1846
مير	-11.1847
يستخدم	-11.1849
▁بير	-11.185
▁تدخل	-11.185
▁des	-11.1852
▁Wide	-11.1853
▁المدنية	-11.1853
طفل	-11.1854
▁عال	-11.1854
▁والش	-11.1855
TR	-11.1856
▁الحراري	-11.1856
aj	-11.1857
▁صحيحة	-11.1858
ket	-11.1859
▁premium	-11.186
▁boost	-11.186
▁مرونة	-11.1861
▁فأنت	-11.1863
▁lamp	-11.1863
▁pull	-11.1863
▁التلوث	-11.1866
▁العقود	-11.187
▁وسهل	-11.1872
▁covering	-11.1874
ert	-11.1876
▁proposal	-11.1878
▁الخطوط	-11.1878
أجزاء	-11.188
▁recover	-11.188
▁maybe	-11.1882
BS	-11.1882
▁delicious	-11.1883
▁Creative	-11.1884
▁الشاطئ	-11.1885
▁Sal	-11.1886
▁الموت	-11.1888
ano	-11.1888
مشروع	-11.1888
خذ	-11.1888
▁تبريد	-11.1888
عمر	-11.1889
اقتراح	-11.189
بيانات	-11.189
▁containing	-11.1891
▁زاد	-11.1891
▁وقطع	-11.1891
arm	-11.1891
▁wheel	-11.1896
▁والغاز	-11.1896
eb	-11.1897
▁المراقبة	-11.1898
▁نؤمن	-11.1898
gin	-11.1899
▁مج	-11.1899
▁ملك	-11.19
tens	-11.1901
▁organisation	-11.1901
▁Message	-11.1902
وج	-11.1903
▁"2,	-11.1903
ros	-11.1904
▁batteries	-11.1906
▁JavaScript	-11.1906
▁المثالية	-11.1909
▁Body	-11.1909
▁quarter	-11.191
▁الأقسام	-11.191
0،000	-11.191
▁الفاخرة	-11.1912
ening	-11.1914
▁الأداة	-11.1916
▁مشتركة	-11.1917
خير	-11.1918
مقاول	-11.1919
▁بطرق	-11.192
▁000	-11.192
▁دار	-11.1922
▁seeking	-11.1924
تلك	-11.1924
▁المقالات	-11.1924
فحص	-11.1926
▁willing	-11.1929
▁iPad	-11.1929
▁technological	-11.1929
▁الأبحاث	-11.1929
▁cart	-11.193
▁thoughts	-11.1932
▁شرط	-11.1934
▁z	-11.1935
▁المصانع	-11.1935
ANT	-11.1938
▁اعتمادا	-11.1938
ترجمة	-11.1939
code	-11.194
▁saved	-11.1941
▁يفعل	-11.1942
▁قوانين	-11.1943
▁ear	-11.1943
تنوع	-11.1943
▁eliminate	-11.1945
صير	-11.1945
▁checking	-11.1946
▁تضم	-11.1948
sign	-11.195
▁queries	-11.1953
▁analyze	-11.1953
▁Cooperation	-11.1954
▁detection	-11.1954
▁الوسطى	-11.1954
سكان	-11.1954
▁stick	-11.1955
Li	-11.1961
▁البرتغالية	-11.1962
▁اقتصادية	-11.1963
▁الجوانب	-11.1963
▁coating	-11.1965
En	-11.1966
▁حرية	-11.1966
▁حرف	-11.1969
▁تق	-11.1969
▁التصويت	-11.197
▁2.0	-11.197
ric	-11.197
إعادة	-11.1971
▁القوية	-11.1973
mg	-11.1973
▁Features	-11.1974
▁achieving	-11.1976
▁جوانب	-11.1976
▁العيش	-11.1979
▁ge	-11.1979
▁Ready	-11.198
▁Va	-11.1981
▁02	-11.1982
▁(4	-11.1982
▁hall	-11.1983
رضا	-11.1984
bot	-11.1984
▁AR	-11.1984
▁figure	-11.1984
▁مجمع	-11.1984
▁أما	-11.1985
▁التوزيع	-11.1986
▁Doha	-11.1987
▁تلوث	-11.1987
▁قليلاً	-11.1987
▁الخطة	-11.1987
▁shares	-11.1989
اصر	-11.199
2015	-11.199
▁careful	-11.1991
aff	-11.1992
روا	-11.1992
▁الاتفاقية	-11.1993
▁أنّ	-11.1994
ODM	-11.1994
-30	-11.1996
▁objects	-11.1997
▁قامت	-11.1997
▁يعانون	-11.1999
تعد	-11.2001
▁1996	-11.2001
pet	-11.2004
best	-11.2004
▁Minimum	-11.2004
ake	-11.2005
▁السماء	-11.2006
▁Austria	-11.2007
Professional	-11.2007
Create	-11.2007
▁الموعد	-11.2009
▁والتعاون	-11.2009
▁Libya	-11.2009
طير	-11.201
▁Mon	-11.2011
▁Usually	-11.2018
سنة	-11.2018
بمجرد	-11.2018
▁bonus	-11.2019
ضيف	-11.2019
Bo	-11.202
▁Fun	-11.2021
ging	-11.2022
▁Mas	-11.2022
▁injection	-11.2022
▁shock	-11.2023
▁تايوان	-11.2023
كول	-11.2024
▁مبيعاتنا	-11.2025
▁sta	-11.2025
▁للطلاب	-11.2026
▁الفعلية	-11.2028
▁specialist	-11.2028
▁الشاملة	-11.2029
▁ومنطقة	-11.2029
Hello	-11.2031
رّ	-11.2032
▁للتعامل	-11.2034
▁Latest	-11.2037
load	-11.2037
ايا	-11.2038
ire	-11.204
▁ناجحة	-11.2041
▁checked	-11.2042
▁happened	-11.2042
▁numerous	-11.2046
▁]	-11.2049
▁Instant	-11.205
▁operational	-11.205
▁الحقائق	-11.2051
▁Paypal	-11.2052
met	-11.2053
▁director	-11.2054
▁للخدمات	-11.2054
Delivery	-11.2055
▁Agriculture	-11.2057
▁اللوحة	-11.2057
ND	-11.2057
▁Pass	-11.2059
▁Restaurant	-11.2059
▁ور	-11.2065
غرب	-11.2066
▁الاختراع	-11.2069
▁LE	-11.2071
▁يعيش	-11.2071
ميد	-11.2072
▁indicators	-11.2072
ّل	-11.2073
/2	-11.2073
▁commission	-11.2073
▁القرارات	-11.2073
▁Mission	-11.2073
▁ماء	-11.2074
▁أرباح	-11.2075
▁يعيشون	-11.2076
▁passion	-11.2077
▁موثوقية	-11.2078
Sa	-11.2079
▁saying	-11.208
▁craft	-11.2082
مواد	-11.2084
▁Various	-11.2085
▁movies	-11.2086
أمر	-11.2086
5,000	-11.2087
مح	-11.2088
els	-11.2088
▁والنقل	-11.2089
تج	-11.2091
اللغة	-11.2091
▁gate	-11.2092
▁equivalent	-11.2093
▁الإحتيال	-11.2093
▁إبلاغ	-11.2093
▁رحلتك	-11.2093
▁brush	-11.2093
▁شبه	-11.2095
▁مولد	-11.2095
▁صح	-11.2095
▁لتصميم	-11.2097
درج	-11.2097
رأس	-11.2098
▁السقف	-11.2099
▁05	-11.2099
▁الروح	-11.21
حاكم	-11.2101
DP	-11.2103
▁والصحة	-11.2103
▁والغش	-11.2103
Ar	-11.2104
79	-11.2105
Most	-11.2107
▁المج	-11.211
▁السورية	-11.211
▁Receive	-11.2111
▁John	-11.2112
▁مستقلة	-11.2112
▁committee	-11.2113
▁فروع	-11.2113
▁Mail	-11.2114
▁أمي	-11.2116
▁Platform	-11.2116
▁concrete	-11.2116
▁generator	-11.2116
▁pharmaceutical	-11.2116
▁fault	-11.2116
▁economical	-11.2117
▁Installation	-11.2118
مارك	-11.2118
▁أخضر	-11.2119
▁dead	-11.212
▁التفاعل	-11.212
▁artwork	-11.2121
ربط	-11.2122
ind	-11.2122
▁للس	-11.2125
▁وصلت	-11.2126
▁آر	-11.2127
▁drinks	-11.2128
rad	-11.2129
▁لمعالجة	-11.2131
خصائص	-11.2132
▁عما	-11.2132
▁nearly	-11.2133
▁Gen	-11.2134
▁للشخص	-11.2134
راك	-11.2135
داد	-11.2135
store	-11.2136
▁أثر	-11.2136
▁للتواصل	-11.2137
▁رسمي	-11.2137
PL	-11.2137
▁مصباح	-11.214
▁laboratory	-11.214
▁سياسات	-11.214
▁1995	-11.2142
Is	-11.2144
▁التأليف	-11.2145
▁taxes	-11.2149
خلاص	-11.215
OEM	-11.215
ory	-11.215
lid	-11.215
▁24-	-11.2151
▁الوقاية	-11.2152
Just	-11.2152
▁Del	-11.2153
▁الزوج	-11.2154
▁marked	-11.2154
▁Third	-11.2154
▁insert	-11.2156
وحدة	-11.2157
Well	-11.2157
اته	-11.2157
حساس	-11.2157
▁سرية	-11.2159
▁الدقيق	-11.2159
بلد	-11.2163
اختر	-11.2163
▁participating	-11.2163
▁supplies	-11.2163
▁teeth	-11.2163
▁Dutch	-11.2164
▁موسكو	-11.2164
▁everywhere	-11.2165
▁43	-11.2165
▁ABS	-11.2169
▁washing	-11.2169
82	-11.2169
▁!!!	-11.2172
▁Works	-11.2174
كتل	-11.2174
▁أساليب	-11.2175
خيارات	-11.2177
That	-11.2177
▁راسل	-11.2177
▁sensitive	-11.2178
▁stars	-11.2179
أعلى	-11.218
▁الارتفاع	-11.218
▁غو	-11.218
▁Return	-11.218
▁Algeria	-11.2182
▁صارم	-11.2184
▁فشل	-11.2184
▁differ	-11.2184
▁39	-11.2186
▁museum	-11.2187
▁الأطعمة	-11.2187
▁اليسار	-11.2187
يها	-11.2188
▁وجودة	-11.219
▁wherever	-11.219
▁حلقة	-11.219
▁majority	-11.2193
▁Sur	-11.2194
نص	-11.2195
▁للرد	-11.2195
دليل	-11.2197
▁تنمو	-11.2197
roll	-11.2201
▁والصور	-11.2201
isation	-11.2201
▁Photos	-11.2202
عمار	-11.2203
dex	-11.2203
▁Applications	-11.2203
خطوط	-11.2204
وار	-11.2206
▁جهازك	-11.2207
▁220	-11.2211
---	-11.2216
▁مسجلة	-11.2217
▁الشارع	-11.2221
ّن	-11.2222
مقارنة	-11.2222
▁نهج	-11.2223
▁Bitcoin	-11.2225
▁cha	-11.2226
▁دولي	-11.2226
ائنا	-11.2227
lf	-11.2231
تُ	-11.2231
سافر	-11.2231
▁resource	-11.2234
▁هولندا	-11.2235
▁Pdf	-11.2235
▁لائحة	-11.2235
93	-11.2235
هيئة	-11.2237
▁استكشاف	-11.2238
▁أرغب	-11.2239
إدارة	-11.224
▁سكان	-11.2241
▁المساواة	-11.2243
▁المكاتب	-11.2244
هار	-11.2244
▁المعيار	-11.2245
▁يس	-11.2246
قتل	-11.2248
تسجيل	-11.2251
▁Ten	-11.2251
▁مغلقة	-11.2252
▁Important	-11.2253
▁الرابع	-11.2255
▁الصوتية	-11.2255
▁Higher	-11.2255
▁مستودع	-11.2256
▁خشبية	-11.2256
▁sensor	-11.2259
▁infection	-11.2259
▁suggestion	-11.2259
▁Tips	-11.226
▁غاز	-11.226
▁مصطلح	-11.2261
▁مسؤولة	-11.2262
cover	-11.2266
▁قصص	-11.2266
▁printer	-11.2266
▁للمواد	-11.2272
▁جنس	-11.2273
▁تحدد	-11.2274
▁الأكبر	-11.2275
▁Displayed	-11.2276
تفاعل	-11.2276
▁حقًا	-11.2277
ONG	-11.2277
▁Far	-11.2279
▁Cars	-11.2282
▁followed	-11.2282
▁الهادئ	-11.2282
▁relating	-11.2282
▁magazine	-11.2283
▁جزيرة	-11.2283
nc	-11.2283
▁Month	-11.2283
غادر	-11.2283
▁جلسة	-11.2283
head	-11.2285
▁يلزم	-11.2285
▁capable	-11.2285
▁جهود	-11.2286
حن	-11.2286
▁Down	-11.2287
▁Pen	-11.2287
▁إب	-11.2289
▁rose	-11.229
رول	-11.2291
▁Regional	-11.2292
▁صباحا	-11.2293
▁promotions	-11.2293
▁Making	-11.2294
▁المستهلكين	-11.2296
▁تشجيع	-11.2296
ras	-11.2299
▁immediate	-11.23
تري	-11.2301
▁البيئي	-11.2303
▁المصري	-11.2303
▁teachers	-11.2304
▁أصفر	-11.2306
تعاون	-11.2307
▁smaller	-11.2309
▁Never	-11.2309
تار	-11.231
▁الطائرات	-11.2312
tern	-11.2313
▁clicking	-11.2314
ثمر	-11.2315
▁layer	-11.2315
شكر	-11.2315
▁التآكل	-11.2315
▁feeding	-11.2315
▁skilled	-11.2315
▁المخطط	-11.2316
▁CAD	-11.2318
▁Basic	-11.2319
▁Yellow	-11.232
▁hu	-11.2321
▁وتحقيق	-11.2321
vin	-11.2324
▁لكنه	-11.2324
▁وعد	-11.2326
▁behalf	-11.233
أنشطة	-11.2332
RP	-11.2332
IO	-11.2333
cate	-11.2334
▁الفكرية	-11.2337
▁الخير	-11.2337
▁دخل	-11.2337
hab	-11.2338
▁برجاء	-11.2338
▁الأب	-11.234
heng	-11.2341
74	-11.2344
▁publish	-11.2345
▁التوقف	-11.2348
KO	-11.2348
Let	-11.2348
▁المشغل	-11.2349
▁جسم	-11.235
▁الضخم	-11.2351
▁السياسي	-11.2352
فى	-11.2354
▁قر	-11.2355
▁pallet	-11.2356
▁جهد	-11.2358
een	-11.2358
▁التق	-11.2359
▁controller	-11.236
▁النفس	-11.2361
▁المنخفضة	-11.2364
شهر	-11.2366
▁Sustainable	-11.2366
▁clinic	-11.2368
▁compare	-11.2369
هيكل	-11.2371
Low	-11.2372
yu	-11.2372
commerce	-11.2374
شرق	-11.2375
▁كونغ	-11.2377
▁cons	-11.2377
▁south	-11.2379
▁supervision	-11.2379
▁Version	-11.2379
under	-11.2381
▁drivers	-11.2381
▁Flat	-11.2382
▁ratings	-11.2383
Lo	-11.2385
▁الفعاليات	-11.2386
فندق	-11.2387
Fa	-11.2387
عض	-11.2389
▁club	-11.239
▁يحمل	-11.2391
▁Sim	-11.2392
TOR	-11.2392
cies	-11.2393
▁ومقاومة	-11.2393
▁describe	-11.2393
▁Holiday	-11.2394
▁Cons	-11.2395
تال	-11.2395
بدء	-11.2399
▁الناتج	-11.24
▁وعدم	-11.2401
▁الجنسي	-11.2402
▁عوامل	-11.2403
▁configuration	-11.2403
▁leaving	-11.2403
▁tutorial	-11.2403
udi	-11.2403
▁objective	-11.2404
▁لوضع	-11.2405
▁اقتصاد	-11.2405
▁harmful	-11.2406
▁Table	-11.2409
▁لمتطلباتك	-11.241
▁التس	-11.2411
ولي	-11.2412
▁trans	-11.2413
▁تدوير	-11.2413
▁معدلات	-11.2418
▁والعروض	-11.2418
▁portal	-11.2419
حساب	-11.2419
▁Clean	-11.2419
▁لمختلف	-11.2419
ران	-11.242
▁cooking	-11.242
▁Prices	-11.242
صنف	-11.242
▁technique	-11.2427
▁reception	-11.2427
▁للرجال	-11.2427
▁guidelines	-11.2428
▁3-4	-11.2429
▁specifically	-11.243
▁1990	-11.2432
▁المحترفين	-11.2433
▁فعلا	-11.2433
▁الحجر	-11.2434
ancy	-11.2436
▁وع	-11.2438
ساعدك	-11.2439
ائهم	-11.2439
Shipping	-11.244
awa	-11.2442
▁مئات	-11.2442
▁إنهاء	-11.2444
وخ	-11.2445
شو	-11.2445
عق	-11.2446
▁مقعد	-11.2446
-6	-11.2447
أينما	-11.2447
مؤتمر	-11.2447
قدّم	-11.2451
▁Age	-11.2451
/6	-11.2451
عبر	-11.2452
▁restrictions	-11.2453
▁لتصبح	-11.2454
▁2016.	-11.2455
آلات	-11.2456
▁الأولوية	-11.2456
▁chart	-11.2456
▁مبادئ	-11.2457
body	-11.2457
▁350	-11.2459
الرجاء	-11.2461
▁Risk	-11.2461
▁نعلم	-11.2462
▁بس	-11.2464
رفض	-11.2465
١	-11.2466
▁بتوفير	-11.2466
▁older	-11.2474
▁Strategy	-11.2476
▁لفتح	-11.2477
▁Ask	-11.2479
▁Flexible	-11.248
porn	-11.248
▁خارجية	-11.2481
انغ	-11.2481
▁eating	-11.2481
▁الوحيدة	-11.2482
▁Young	-11.2483
pan	-11.2484
online	-11.2485
▁منفصلة	-11.2488
▁لإرسال	-11.2488
▁الطول	-11.2493
▁Prime	-11.2493
LTD	-11.2495
رفع	-11.2496
▁الجماعي	-11.2497
bin	-11.25
انتخاب	-11.25
▁pregnant	-11.25
▁مضت	-11.25
▁Dream	-11.25
▁bridge	-11.2501
▁حاليًا	-11.2502
lands	-11.2502
Finally	-11.2506
▁Korean	-11.2508
▁الحفر	-11.2509
ular	-11.2511
كوك	-11.2514
▁الكلي	-11.2515
▁تسهيل	-11.2515
كتشف	-11.2519
تمام	-11.252
▁sand	-11.2521
▁لتناسب	-11.2521
▁formats	-11.2521
▁إلكترونية	-11.2523
mes	-11.2523
▁القطن	-11.2523
ider	-11.2524
▁Interior	-11.2525
▁hidden	-11.2525
▁أنفسهم	-11.2525
hai	-11.2525
▁Workshop	-11.2525
▁aircraft	-11.2526
▁تستحق	-11.2526
عه	-11.2526
▁الآمن	-11.2528
▁Booking	-11.2528
▁frequently	-11.2528
▁صباح	-11.2529
▁المسابقة	-11.2529
▁ja	-11.2529
▁allowing	-11.2531
سبب	-11.2533
▁sort	-11.2533
▁الكريم	-11.2533
▁fastest	-11.2534
▁3-7	-11.2537
Although	-11.2539
دود	-11.254
▁Bad	-11.2541
▁تطبق	-11.2541
▁begins	-11.2542
▁Five	-11.2545
▁برا	-11.2546
UL	-11.2548
aya	-11.2549
▁fragrance	-11.2549
▁province	-11.2549
▁بشدة	-11.255
▁السفلي	-11.255
▁robot	-11.255
▁Assets	-11.255
▁deserve	-11.255
▁transform	-11.255
▁sincerely	-11.2552
▁اللوجستية	-11.2553
ميزة	-11.2553
AI	-11.2556
حتفظ	-11.2557
▁functional	-11.2557
▁نحب	-11.2558
▁المدفوعات	-11.2558
إعلام	-11.2559
جامع	-11.256
▁الصمام	-11.256
ستمتع	-11.2561
▁Popular	-11.2562
known	-11.2563
آخر	-11.2564
▁الشعب	-11.2566
▁Bal	-11.2567
▁Individual	-11.2569
▁dreams	-11.257
▁الاستثمارية	-11.2573
▁داخلي	-11.2573
▁والمست	-11.2574
خرج	-11.2574
▁although	-11.2574
▁swimming	-11.2574
▁ليبيا	-11.2575
▁dishes	-11.2576
▁Accept	-11.2579
▁Electronics	-11.258
BC	-11.2583
لماذا	-11.2584
▁mental	-11.2584
▁صب	-11.2587
تستخدم	-11.2589
جيد	-11.2589
▁يعرض	-11.2592
▁Deposit	-11.2592
▁cute	-11.2593
▁بالغ	-11.2595
تحمل	-11.2595
▁designing	-11.2596
بطاقة	-11.2597
شع	-11.2597
▁treatments	-11.2599
▁showing	-11.2599
gor	-11.26
▁1997	-11.2601
▁Latin	-11.2601
يام	-11.2604
▁المفتاح	-11.2604
تحرك	-11.2604
▁عكس	-11.2606
▁الأزياء	-11.2606
▁العاب	-11.261
SH	-11.2612
فرق	-11.2613
its	-11.2613
▁القضاء	-11.2613
▁ratio	-11.2614
منظمة	-11.2614
Or	-11.2616
▁وتنفيذ	-11.2619
▁Br	-11.2619
nova	-11.2619
▁resolve	-11.262
ado	-11.262
▁smile	-11.2624
حمي	-11.2626
▁Turn	-11.2627
▁Exp	-11.2629
▁fund	-11.2629
▁المتقدم	-11.2629
▁فيرجى	-11.263
▁Job	-11.2632
▁تمديد	-11.2634
ona	-11.2635
▁qua	-11.2637
كافة	-11.2638
minute	-11.264
▁Tax	-11.264
▁بحسب	-11.2642
لاعب	-11.2643
zer	-11.2645
علامة	-11.2646
▁Cover	-11.2647
▁Field	-11.2648
▁Required	-11.2648
▁معتمد	-11.2649
▁موسم	-11.265
▁object	-11.265
▁خبير	-11.265
dding	-11.265
▁LI	-11.265
bro	-11.2651
▁Ecommerce	-11.2652
nia	-11.2653
▁environments	-11.2655
▁مشرق	-11.2656
cat	-11.266
▁الوسائط	-11.2663
▁لرؤية	-11.2663
▁معًا	-11.2664
▁الإعداد	-11.2664
Buy	-11.2664
▁التعليمي	-11.2666
▁organic	-11.2668
▁صدر	-11.2669
محتوى	-11.2672
▁Therefore	-11.2672
▁Zealand	-11.2673
▁المناعة	-11.2674
▁gave	-11.2674
▁spaces	-11.2676
hand	-11.2676
سين	-11.2678
▁حارا	-11.2679
▁الجانبين	-11.268
▁si	-11.2681
ُم	-11.2682
▁الكلاسيكية	-11.2683
لع	-11.2684
▁Improve	-11.2684
▁ودية	-11.2686
رقم	-11.2686
▁وتشغيل	-11.2687
▁su	-11.269
للمزيد	-11.2694
▁افتتاح	-11.2695
▁walls	-11.2697
▁Guangzhou	-11.2698
▁push	-11.2699
▁تنسى	-11.2701
▁Bas	-11.2701
ولو	-11.2701
▁pan	-11.2701
لذا	-11.2704
▁فنية	-11.2705
▁discussion	-11.2705
▁المؤلف	-11.2705
يئة	-11.2705
▁ولل	-11.2708
▁Ge	-11.2709
▁Performance	-11.271
▁establishing	-11.271
▁detect	-11.2713
▁Premium	-11.2713
▁التعليق	-11.2713
cle	-11.2716
del	-11.2719
▁Printing	-11.272
meter	-11.272
VER	-11.2722
▁maintaining	-11.2722
▁Translation	-11.2723
▁5-10	-11.2724
▁certainly	-11.2725
wing	-11.2726
▁corrosion	-11.2726
▁كرا	-11.2726
رصد	-11.2727
ارتفاع	-11.2727
▁تريده	-11.2728
▁منفذ	-11.2729
▁Golden	-11.273
▁Doctor	-11.273
▁المساعدات	-11.2733
▁theme	-11.2733
▁fly	-11.2734
▁محلات	-11.2735
▁المحتمل	-11.2735
▁Ku	-11.2737
Special	-11.2738
ami	-11.2738
قود	-11.2741
▁Av	-11.2742
▁الإسلام	-11.2743
حتاج	-11.2745
▁bearing	-11.2745
▁المسبق	-11.2746
▁scene	-11.2747
▁طبيعة	-11.2747
بني	-11.2748
▁cotton	-11.2748
▁football	-11.2748
▁الدوحة	-11.2748
▁interactive	-11.2749
▁absolutely	-11.2751
rol	-11.2753
▁amended	-11.2756
بح	-11.2756
يست	-11.2756
▁UV	-11.2758
▁وإلى	-11.2758
▁الاول	-11.2758
▁بالت	-11.276
this	-11.2762
cus	-11.2762
▁طبق	-11.2763
gs	-11.2763
PR	-11.2765
مم	-11.2768
بيض	-11.2769
Why	-11.2769
▁apps	-11.2769
▁التنسيق	-11.277
▁الزائد	-11.2771
▁width	-11.2773
▁smoke	-11.2773
▁وعمل	-11.2774
▁managing	-11.2774
▁البارد	-11.2775
▁missing	-11.2775
▁الإبلاغ	-11.2775
▁القنوات	-11.2778
▁buyers	-11.2779
▁stream	-11.2779
▁احتمال	-11.2779
▁والبحث	-11.278
▁والقدرة	-11.278
▁بتطوير	-11.278
باك	-11.2783
▁bike	-11.2784
▁Cities	-11.2785
▁Base	-11.2787
▁حديثة	-11.2787
صال	-11.2789
nna	-11.279
main	-11.279
▁$1	-11.279
lia	-11.279
effective	-11.2791
▁سبعة	-11.2792
راق	-11.2797
-9	-11.2797
▁Capacity	-11.2799
▁district	-11.2799
▁شراكة	-11.2799
ern	-11.2799
▁بتصميم	-11.2799
▁التدريس	-11.2799
▁الجرعة	-11.2799
ame	-11.28
▁اختيارك	-11.2801
from	-11.2803
ثير	-11.2803
طيب	-11.2803
▁الاقتباس	-11.2803
ain	-11.2804
▁التدخين	-11.2804
▁مصانع	-11.2805
▁documentation	-11.2805
شمس	-11.2805
verse	-11.2807
DU	-11.2808
boot	-11.2808
ika	-11.2809
مختلف	-11.281
▁Bus	-11.2814
▁وفر	-11.2814
لوك	-11.2814
▁alloy	-11.2815
غم	-11.2816
▁41	-11.2816
▁Both	-11.2816
▁تؤدي	-11.2818
طرق	-11.2827
▁وسرعة	-11.2827
▁Tell	-11.2827
▁ضرب	-11.2828
صاف	-11.283
▁While	-11.2831
▁BY	-11.2831
▁تحول	-11.2832
used	-11.2833
▁لله	-11.2833
▁بإجراء	-11.2834
▁Wedding	-11.2835
▁Emergency	-11.2835
▁Allow	-11.2836
▁البطاقات	-11.2836
ata	-11.2837
vice	-11.2837
▁LA	-11.2839
▁الوزارة	-11.2839
▁الأربعاء	-11.2841
eth	-11.2841
▁العامل	-11.2841
فاق	-11.2843
▁جلب	-11.2843
▁يساعدك	-11.2844
bank	-11.2844
▁tape	-11.2845
▁Based	-11.2845
▁سوء	-11.2848
▁Statistics	-11.2849
▁calendar	-11.2849
▁شكوى	-11.2849
▁pls	-11.2851
▁(7)	-11.2851
▁أبرز	-11.2852
▁10000	-11.2853
▁سمعت	-11.2853
gmail	-11.2853
▁phones	-11.2853
▁يغطي	-11.2854
منافس	-11.2858
▁العمالة	-11.2858
▁وان	-11.2861
▁7)	-11.2862
▁Ya	-11.2864
▁الربح	-11.2868
Because	-11.2868
▁ممتعة	-11.2868
ندر	-11.2873
▁ذكي	-11.2873
▁sustainability	-11.2875
بعث	-11.2876
▁experiment	-11.2876
▁meal	-11.288
▁login	-11.288
▁assure	-11.288
لكن	-11.2882
▁تصحيح	-11.2882
توفير	-11.2883
▁1500	-11.2885
▁"8	-11.2888
▁الموقف	-11.2889
▁والأداء	-11.289
▁continued	-11.2893
▁Happy	-11.2895
▁Pet	-11.2898
قاتل	-11.2898
▁Inspection	-11.29
▁عجلة	-11.29
▁capability	-11.2901
▁Sky	-11.2901
▁strip	-11.2901
سعر	-11.2903
▁العمود	-11.2904
ique	-11.2904
▁الفم	-11.2905
ضبط	-11.2907
▁الاستثمارات	-11.2909
▁served	-11.2911
▁Cl	-11.2911
▁Near	-11.2915
▁أهل	-11.2915
arch	-11.2915
▁ومراقبة	-11.2915
▁vegetables	-11.2917
▁ماركت	-11.2918
▁trusted	-11.2919
©	-11.2919
بية	-11.2921
oli	-11.2923
▁التقليدي	-11.2924
▁happiness	-11.2925
▁Analysis	-11.2925
▁thread	-11.2926
▁الجدران	-11.2926
▁الذ	-11.2927
▁Effective	-11.2929
RM	-11.2929
▁court	-11.293
▁Value	-11.2931
▁specially	-11.2934
▁knows	-11.2934
اشتر	-11.2935
▁ضخمة	-11.2937
▁بارك	-11.2937
▁الممكنة	-11.2938
▁Yu	-11.2939
▁cheaper	-11.294
▁وجد	-11.294
دري	-11.2941
▁mention	-11.2941
▁celebrate	-11.2941
▁شرب	-11.2942
▁Ball	-11.2943
▁المحليين	-11.2943
heat	-11.2943
Language	-11.2945
▁وطرق	-11.2945
▁organize	-11.2945
ELL	-11.2946
فك	-11.2949
▁صفقة	-11.2949
▁شنومكس	-11.2949
▁Federal	-11.2951
▁execution	-11.2951
▁المسموح	-11.2951
▁يعملون	-11.2952
▁Face	-11.2952
واجه	-11.2953
▁عنك	-11.2953
▁يومي	-11.2954
ولد	-11.2954
inter	-11.2955
▁tri	-11.2956
▁التجميع	-11.2958
▁تركيز	-11.2958
معلومات	-11.2959
▁ني	-11.2962
▁لتلقي	-11.2963
▁والمهنية	-11.2965
▁tu	-11.2965
▁protecting	-11.2965
▁teacher	-11.2966
▁outlet	-11.2969
▁الصادر	-11.2969
rist	-11.2971
▁التيار	-11.2971
eo	-11.2972
سيم	-11.2974
▁الضرورية	-11.2974
▁الفا	-11.2975
▁APP	-11.2976
▁Activities	-11.2977
▁composition	-11.2977
▁الترخيص	-11.2982
▁الجيل	-11.2983
▁ونقل	-11.2983
gri	-11.2987
غار	-11.2992
▁north	-11.2992
▁الأشعة	-11.2993
▁الزر	-11.2993
ich	-11.2994
▁والأطفال	-11.2997
Go	-11.2999
▁المقام	-11.3
▁extract	-11.3001
جون	-11.3001
▁Initiative	-11.3002
▁المتنوعة	-11.3002
▁smell	-11.3002
سمح	-11.3003
▁Planning	-11.3003
▁flash	-11.3004
▁حلم	-11.3007
53	-11.3007
بنك	-11.3008
hel	-11.3008
▁التفاوض	-11.3008
▁حكومة	-11.301
▁Parliament	-11.3011
▁Their	-11.3012
▁ترحيبا	-11.3013
sky	-11.3016
تسوق	-11.3016
shan	-11.302
din	-11.3022
▁دائمة	-11.3025
dor	-11.3026
▁Muslim	-11.3026
▁160	-11.3027
▁لشخص	-11.3028
ero	-11.3029
▁Pack	-11.3029
▁Str	-11.3029
▁عين	-11.3031
بيت	-11.3032
▁1.2	-11.3032
▁modify	-11.3032
▁إكس	-11.3032
▁حكومية	-11.3036
▁Island	-11.3039
▁النمط	-11.3041
▁زائر	-11.3042
تخصص	-11.3042
▁silver	-11.3043
NC	-11.3043
KA	-11.3048
She	-11.3049
/10	-11.3051
▁دروس	-11.3051
▁impossible	-11.3054
▁Living	-11.3055
▁القبول	-11.3055
▁III	-11.3056
▁9001	-11.3056
فص	-11.3058
سوق	-11.3058
▁AI	-11.3058
▁يرغبون	-11.3058
▁لمكافحة	-11.3059
▁المتخصصين	-11.3059
▁!!	-11.3061
▁الهندسية	-11.3062
تكوين	-11.3062
sure	-11.3063
▁cargo	-11.3063
▁charging	-11.3065
▁يشارك	-11.3065
▁والآن	-11.3066
سعة	-11.3066
83	-11.3068
▁mixed	-11.3068
-60	-11.3069
▁مراعاة	-11.3071
ban	-11.3072
▁الفقر	-11.3072
AH	-11.3072
▁49	-11.3073
▁الأمير	-11.3073
▁ونوعية	-11.3074
▁Close	-11.3077
▁Ireland	-11.308
▁المز	-11.3081
▁الماكينة	-11.3082
MENT	-11.3083
▁يمنع	-11.3084
▁تفقد	-11.3085
▁defined	-11.3089
اهم	-11.3089
▁واجب	-11.3091
▁تمر	-11.3092
▁مسح	-11.3093
▁departments	-11.3093
pur	-11.3094
▁dealer	-11.3095
soft	-11.3097
▁Remove	-11.3097
tes	-11.3098
rain	-11.31
▁Contract	-11.31
▁assess	-11.31
▁جزءا	-11.3102
دفاع	-11.3102
▁Four	-11.3105
▁ARE	-11.3105
▁integrity	-11.3106
▁venue	-11.3106
▁copyright	-11.3106
▁species	-11.3106
▁command	-11.3107
▁holding	-11.3108
▁Stop	-11.3109
▁Answer	-11.311
▁union	-11.3111
▁طب	-11.3112
▁Gate	-11.3114
▁Origin	-11.3117
vert	-11.3125
تكلم	-11.3126
بقى	-11.3126
▁cells	-11.3127
مش	-11.3131
▁التدوير	-11.3132
▁بلجيكا	-11.3132
▁وآسيا	-11.3132
▁vital	-11.3133
▁النبيذ	-11.3133
▁تركز	-11.3133
tom	-11.3134
▁قلق	-11.3135
▁الانتباه	-11.3135
▁Section	-11.3136
▁وكلاء	-11.3136
▁العرب	-11.3136
▁Engine	-11.3137
▁الرو	-11.3137
سيا	-11.3138
▁منظم	-11.3139
▁"3,	-11.314
▁مقبول	-11.314
▁leads	-11.3141
▁أدى	-11.3141
▁عليكم	-11.3142
▁Skills	-11.3143
▁مؤسسات	-11.3143
▁ننظر	-11.3143
▁jewelry	-11.3143
▁والوقت	-11.3143
▁greatest	-11.3145
توقف	-11.3151
>>	-11.3152
▁shapes	-11.3155
▁فيروس	-11.3156
FS	-11.3156
mate	-11.3157
▁المطاف	-11.3158
▁concern	-11.3159
▁ولها	-11.3161
▁Track	-11.3162
▁Hall	-11.3162
▁Clear	-11.3165
▁الجوائز	-11.3166
▁الكلية	-11.3168
▁patterns	-11.3169
تواجد	-11.3173
▁generate	-11.3174
▁الفلسطينية	-11.3178
تباع	-11.318
▁بأنه	-11.3181
cess	-11.3181
▁Bay	-11.3182
▁مصنوع	-11.3183
▁confident	-11.3184
▁Forecast	-11.3184
▁removal	-11.3184
▁خلاف	-11.3185
▁اشتري	-11.3186
▁العاصمة	-11.3187
Dis	-11.3187
▁Ga	-11.3187
▁Less	-11.3187
own	-11.3188
▁engaged	-11.3191
▁الطازجة	-11.3191
▁panels	-11.3192
▁الفرعية	-11.3193
▁الشراكة	-11.3195
▁الاتجاهات	-11.3197
▁CD	-11.3199
▁counter	-11.32
▁للتطبيق	-11.32
ged	-11.3201
▁المك	-11.3201
▁المدة	-11.3202
▁sum	-11.3202
شة	-11.3203
▁flights	-11.321
▁uniform	-11.321
▁زفاف	-11.3211
▁رسالتك	-11.3211
▁الموضة	-11.3211
1%	-11.3211
▁الحملة	-11.3211
▁myself	-11.3213
▁الشؤون	-11.3213
ALL	-11.3214
▁continues	-11.3214
▁الانجليزية	-11.3214
ويد	-11.3215
EG	-11.3217
pc	-11.3219
▁VAT	-11.3221
المواد	-11.3222
▁آلية	-11.3223
late	-11.3225
دق	-11.3225
▁factor	-11.3225
Ta	-11.3226
▁surprise	-11.3227
▁130	-11.3229
▁أوم	-11.3231
قراء	-11.3232
▁المركزية	-11.3233
itive	-11.3233
▁الإقليمي	-11.3235
▁استمرار	-11.3236
▁proceed	-11.3237
▁brother	-11.3237
▁eligible	-11.3237
▁intelligent	-11.3237
▁vacation	-11.3237
▁قبالة	-11.3237
▁جهات	-11.3237
-25	-11.3238
▁الفوركس	-11.3239
▁حزب	-11.324
▁تحرير	-11.324
▁عادي	-11.3241
▁sit	-11.3242
▁Statement	-11.3243
▁الصارمة	-11.3246
▁entering	-11.3247
رية	-11.3248
قصد	-11.3249
▁drinking	-11.325
مثال	-11.325
▁sole	-11.3252
▁lu	-11.3252
الإ	-11.3253
▁يعود	-11.3255
▁لصناعة	-11.3259
وغ	-11.3259
سيل	-11.3261
▁بمثابة	-11.3263
hood	-11.3263
rem	-11.3264
▁stuff	-11.3264
▁Woman	-11.3264
▁bigger	-11.3265
خلق	-11.3265
▁كجزء	-11.3266
▁massage	-11.3266
▁حزام	-11.3266
▁فت	-11.3268
▁محركات	-11.3268
▁المتصفح	-11.3268
Tech	-11.327
zy	-11.3271
▁movie	-11.3271
▁تفكر	-11.3271
Time	-11.3272
▁هام	-11.3273
cams	-11.3274
▁ضرورية	-11.328
تحكم	-11.328
▁male	-11.3283
graph	-11.3283
▁extreme	-11.3284
tim	-11.3284
▁للق	-11.3285
rot	-11.3285
▁bottles	-11.3287
▁Library	-11.329
▁النحاس	-11.329
zh	-11.329
▁Jesus	-11.329
city	-11.3291
▁programming	-11.3291
▁hardware	-11.3291
▁Force	-11.3293
▁المفاتيح	-11.3293
col	-11.3293
▁distributed	-11.3295
معالجة	-11.3296
100%	-11.3296
مزايا	-11.3296
▁designer	-11.3298
▁Kar	-11.33
ّب	-11.33
ement	-11.3301
▁ماكس	-11.3301
▁لخدمات	-11.3301
▁أمل	-11.3302
▁54	-11.3303
▁Operating	-11.3304
▁mid	-11.3306
▁pen	-11.3306
BI	-11.3308
▁تلقائي	-11.3311
ace	-11.3311
▁مشارك	-11.3311
▁closer	-11.3313
AU	-11.3313
▁prove	-11.3313
▁communications	-11.3314
▁represent	-11.3316
▁الاستشارات	-11.3316
▁context	-11.3316
▁الفنيين	-11.3317
▁شجرة	-11.3317
▁Write	-11.3317
▁guarantees	-11.3317
▁الوردي	-11.3319
دافع	-11.3319
▁دين	-11.3319
▁مواجهة	-11.3319
تعديل	-11.3321
▁والأزرق	-11.3322
▁قضايا	-11.3323
km	-11.3323
▁ju	-11.3324
uce	-11.3326
inal	-11.3328
انج	-11.3328
onic	-11.3328
▁band	-11.3329
▁غرام	-11.3329
▁للتسجيل	-11.3331
▁يبعد	-11.3331
تأثير	-11.3331
شرب	-11.3331
▁fail	-11.3332
▁Spa	-11.3334
خفض	-11.3336
تاح	-11.3336
▁حافظ	-11.3337
تزامن	-11.3341
▁succeed	-11.3343
▁الاستمارة	-11.3343
▁المرغوب	-11.3343
▁قياسي	-11.3343
▁أعمارهم	-11.3344
dic	-11.3344
▁والأمن	-11.3344
▁فحسب	-11.3345
ific	-11.3347
▁اقتباس	-11.3347
tric	-11.3348
▁GCC	-11.3348
▁جدد	-11.3351
▁در	-11.3353
▁نتحدث	-11.3353
دش	-11.3353
متوسط	-11.3354
▁thereof	-11.3355
▁الصيني	-11.3355
▁الشريك	-11.3356
رعا	-11.3357
rah	-11.3358
▁بأكمله	-11.3358
▁وأنت	-11.3364
دى	-11.3365
▁بان	-11.3366
▁رياضية	-11.3367
South	-11.3368
▁البصرية	-11.3369
▁السير	-11.3369
▁بوضوح	-11.3369
▁للذهاب	-11.3369
▁المتجددة	-11.3369
▁Discount	-11.337
▁containers	-11.337
▁gender	-11.337
حالات	-11.3371
▁الموجود	-11.3376
▁المبتكرة	-11.3376
▁Secure	-11.3377
تمويل	-11.3377
▁hire	-11.3378
▁Ki	-11.3379
تحقيق	-11.338
▁يومياً	-11.3382
▁خلفية	-11.3383
▁يحدد	-11.3384
الشحن	-11.3387
▁الدور	-11.3387
▁Climate	-11.3387
▁حصة	-11.3389
▁كود	-11.3389
أعضاء	-11.3391
pay	-11.3392
▁Dar	-11.3394
face	-11.3394
via	-11.3394
nu	-11.3394
▁خلف	-11.3395
▁البريطاني	-11.3395
▁Dammam	-11.3396
▁الطيور	-11.3396
▁snow	-11.3397
▁spent	-11.3398
ترتيب	-11.34
▁قررت	-11.34
▁7-10	-11.3402
صيد	-11.3404
ome	-11.3404
▁لق	-11.3405
rank	-11.3406
▁عمال	-11.3407
شبك	-11.3409
▁Him	-11.3409
▁expression	-11.341
▁توليد	-11.341
▁repeat	-11.3411
أد	-11.3412
▁دعنا	-11.3412
▁تحديثات	-11.3412
▁=--	-11.3414
1000	-11.3415
▁للمستخدم	-11.3417
كسر	-11.3419
▁ES	-11.3419
other	-11.3422
▁الري	-11.3423
▁England	-11.3423
adi	-11.3423
▁Panel	-11.3424
▁insulation	-11.3424
ملفات	-11.3426
رمز	-11.3427
نيا	-11.343
▁تأخير	-11.343
▁96	-11.343
▁الرائع	-11.3431
▁suits	-11.3431
شك	-11.3431
▁ذهب	-11.3432
▁وكانت	-11.3433
CU	-11.3434
▁Partner	-11.3434
bed	-11.3436
▁صالة	-11.3437
▁التطور	-11.3439
▁للمنتج	-11.3439
▁historical	-11.3439
▁بلغ	-11.3442
▁استراتيجيات	-11.3442
▁extended	-11.3443
▁Event	-11.3444
NE	-11.3445
Di	-11.3447
▁النقي	-11.345
▁والأسعار	-11.345
▁orange	-11.345
▁foam	-11.3451
▁designers	-11.3451
▁هامة	-11.3453
▁وتحديد	-11.3454
▁ستار	-11.3456
طاط	-11.3457
▁mechanism	-11.346
▁وأفريقيا	-11.3461
أكبر	-11.3464
▁سقف	-11.3466
▁بعين	-11.3467
▁طاولة	-11.3467
▁wishes	-11.3467
كتابة	-11.3468
poli	-11.347
لأن	-11.347
▁خير	-11.3473
▁بضعة	-11.3474
lb	-11.3474
▁PU	-11.3477
▁الروسي	-11.3478
▁والشحن	-11.3479
▁Logo	-11.3481
▁استعمال	-11.3482
rig	-11.3482
▁Vo	-11.3484
ثناء	-11.3485
▁مدخل	-11.3486
وش	-11.3487
▁كحد	-11.3487
▁العزل	-11.3488
▁وجهات	-11.3488
▁guest	-11.3489
▁Israeli	-11.349
▁المرونة	-11.349
▁الفنون	-11.3494
حف	-11.3495
▁Arm	-11.3496
شجع	-11.3497
▁النبي	-11.3501
▁Orange	-11.3502
▁catch	-11.3503
▁conform	-11.3503
▁رصيد	-11.3503
▁salary	-11.3504
▁capture	-11.3505
inc	-11.3506
▁140	-11.3506
ulation	-11.3509
Many	-11.3511
▁Shi	-11.3512
▁تعليمية	-11.3512
وظائف	-11.3513
▁visits	-11.3514
▁separately	-11.3514
▁Ji	-11.3515
▁Beirut	-11.3516
▁المطور	-11.3519
uz	-11.3522
تخطيط	-11.3522
dan	-11.3523
▁القياسي	-11.3523
▁entered	-11.3524
مجلس	-11.3524
▁البلدية	-11.3525
▁المؤتمرات	-11.3525
▁connector	-11.3525
serv	-11.3526
▁أشعة	-11.3526
DO	-11.3526
84	-11.3528
▁كهربائية	-11.3529
vid	-11.3529
HAN	-11.3529
▁California	-11.3531
▁المكالمات	-11.3531
Business	-11.3531
▁Cross	-11.3532
▁العب	-11.3533
تطوع	-11.3534
▁edition	-11.3535
▁اخرى	-11.3535
rel	-11.3535
▁03	-11.3535
▁مخزن	-11.3535
▁نفهم	-11.3536
▁soul	-11.3537
▁حزم	-11.3537
▁أك	-11.3539
▁أقدم	-11.3539
IES	-11.354
اجتماع	-11.354
قاعدة	-11.3541
▁المؤشرات	-11.3541
▁forming	-11.3541
▁module	-11.3542
Dear	-11.3543
▁Dia	-11.3544
▁Roll	-11.3546
years	-11.3547
▁bio	-11.3548
▁فورا	-11.3548
مبرد	-11.3551
▁بإنشاء	-11.3551
تجديد	-11.3552
▁Vol	-11.3555
ena	-11.3558
▁مستحضرات	-11.3558
▁thermal	-11.3558
قبال	-11.356
ليم	-11.356
▁ستحصل	-11.356
▁الخادم	-11.3562
TRA	-11.3562
بالطبع	-11.3563
▁paying	-11.3564
زيد	-11.3564
تميز	-11.3565
▁احت	-11.3566
▁Fit	-11.3566
▁الرموز	-11.3566
العمل	-11.3567
▁كلّ	-11.3567
▁brain	-11.3568
▁consulting	-11.3568
▁filled	-11.3568
▁owned	-11.3572
اعتبار	-11.3573
▁يحتاجون	-11.3573
RT	-11.3574
▁وادي	-11.3575
▁والمملكة	-11.3575
طعام	-11.3576
▁BA	-11.3578
▁arrived	-11.3578
أسلوب	-11.3579
اذا	-11.358
▁مدرب	-11.3581
KE	-11.3581
▁المهلة	-11.3582
▁Sport	-11.3582
▁increases	-11.3585
▁جزئي	-11.3585
▁Things	-11.3586
▁batch	-11.3586
▁وحل	-11.3586
2/	-11.3586
▁رمادي	-11.3587
▁تقرر	-11.359
▁وحجم	-11.359
▁اختار	-11.359
▁Record	-11.359
RES	-11.3592
▁وضعها	-11.3592
▁لمناقشة	-11.3596
باد	-11.3597
▁Clar	-11.3597
▁اللحوم	-11.3598
Make	-11.36
▁الشفافية	-11.36
▁Launch	-11.3601
▁للمشروع	-11.3601
▁اتصالات	-11.3601
ريا	-11.3604
تناول	-11.3605
▁المناسبات	-11.3606
▁Programme	-11.3608
lad	-11.3608
ونغ	-11.3608
▁نيسان	-11.3611
تع	-11.3612
▁introduction	-11.3613
▁لغاية	-11.3613
▁severe	-11.3613
Black	-11.3614
▁السعي	-11.3617
ANG	-11.3617
▁lab	-11.362
▁الأبواب	-11.3621
▁حسنا	-11.3624
▁Extra	-11.3626
▁التنقل	-11.3627
موس	-11.3628
▁الجائزة	-11.3628
مقاطعة	-11.3629
▁Pacific	-11.3629
▁none	-11.3633
▁47	-11.3634
▁stronger	-11.3635
▁مواطن	-11.3635
▁جدار	-11.3636
▁إم	-11.3637
▁walking	-11.3637
IST	-11.3637
انيا	-11.3637
▁معروفة	-11.364
▁Washington	-11.364
▁المقدس	-11.364
▁البائع	-11.3641
التي	-11.3647
▁cent	-11.3648
lev	-11.365
▁رغبت	-11.3652
▁Process	-11.3653
▁Mal	-11.3654
▁المنزلي	-11.3655
قاط	-11.3655
▁الجواب	-11.3656
▁gl	-11.3657
▁ووقت	-11.3657
yard	-11.3659
▁recording	-11.3659
▁احترام	-11.366
▁التبرع	-11.3664
▁scar	-11.3665
▁اللا	-11.3666
▁globe	-11.3667
▁الرغبة	-11.3668
▁تايلاند	-11.3668
Ti	-11.3668
ينج	-11.3669
▁errors	-11.3669
Usage	-11.3669
iti	-11.367
▁reserve	-11.3672
Based	-11.3672
الق	-11.3672
▁توقيع	-11.3673
رحلة	-11.3675
▁القر	-11.3677
▁يوميًا	-11.3679
فير	-11.3679
▁Student	-11.368
▁المادية	-11.3682
HI	-11.3682
▁رأيت	-11.3683
▁internationally	-11.3684
▁والتحكم	-11.3686
aving	-11.3688
rick	-11.3688
▁ولماذا	-11.3691
▁ban	-11.3691
▁أسبوعين	-11.3692
HS	-11.3694
▁mandatory	-11.3695
▁plenty	-11.3695
▁الفعال	-11.3695
▁البريطانية	-11.3696
▁resort	-11.3696
استفسارات	-11.3696
▁jump	-11.3697
▁ends	-11.3699
علي	-11.37
▁Manufacturing	-11.3705
▁قرارات	-11.3705
▁(19	-11.3706
▁operated	-11.3706
▁الجهود	-11.3707
▁الحيوان	-11.3707
ians	-11.3708
▁مسألة	-11.3711
▁semi	-11.3712
اتكم	-11.3712
وست	-11.3713
▁Developer	-11.3713
▁الكرام	-11.3717
▁داخلية	-11.3718
▁ومتطلبات	-11.3719
▁أبواب	-11.3719
CS	-11.372
iness	-11.372
▁Hard	-11.372
▁الترتيب	-11.3721
▁الخليجي	-11.3722
fully	-11.3723
▁creativity	-11.3723
▁استمارة	-11.3723
▁quiet	-11.3723
▁Han	-11.3723
▁terminal	-11.3723
baku	-11.3725
ws	-11.3726
mission	-11.3726
متعة	-11.3726
▁نبحث	-11.3727
▁يموت	-11.3728
▁birthday	-11.3733
▁temperatures	-11.3733
▁Members	-11.3736
▁الكلب	-11.3736
▁tower	-11.3737
▁مميز	-11.3739
▁Bill	-11.3739
good	-11.374
▁أكون	-11.3741
▁Ref	-11.3741
فوز	-11.3741
▁الجد	-11.3741
▁سفرك	-11.3742
▁Materials	-11.3742
ماس	-11.3742
▁Generally	-11.3743
▁Ham	-11.3746
▁CA	-11.3747
▁Properties	-11.375
▁absorb	-11.375
▁Laser	-11.3752
▁Ag	-11.3752
▁عودة	-11.3752
بحث	-11.3752
▁pr	-11.3752
▁المحكمة	-11.3754
▁الحاويات	-11.3756
▁effectiveness	-11.3757
▁الدائم	-11.3759
▁tourists	-11.376
▁والتوازن	-11.376
▁Eye	-11.3761
▁border	-11.3763
rew	-11.3764
▁Coffee	-11.3764
▁معنى	-11.3765
▁النسخ	-11.3766
▁Fish	-11.3767
باستخدام	-11.3769
charge	-11.3769
▁Gi	-11.3769
▁معروف	-11.377
المزيد	-11.3773
MAN	-11.3775
ult	-11.3776
تعامل	-11.3776
ces	-11.3777
غط	-11.3777
▁وعملية	-11.3778
▁criminal	-11.3778
▁enquiries	-11.3778
▁leather	-11.3778
▁الامارات	-11.3778
▁broadcast	-11.3778
▁الساحل	-11.3779
▁Outlet	-11.3779
▁SAR	-11.3779
▁وبيع	-11.378
▁يستمر	-11.378
ضرب	-11.3781
▁مكون	-11.3781
حكام	-11.3781
▁ويمكننا	-11.3782
speed	-11.3782
برة	-11.3783
جلب	-11.3784
▁الميزانية	-11.3785
▁عملة	-11.3786
زال	-11.3786
▁whenever	-11.3786
▁ob	-11.3786
▁المصرفي	-11.3787
▁الخمس	-11.3788
▁المتاجر	-11.3789
▁51	-11.3791
Si	-11.3793
Net	-11.3793
▁خصومات	-11.3795
▁تريدها	-11.3795
طلاع	-11.3795
▁لح	-11.3796
▁delete	-11.3796
▁globally	-11.3797
▁3.5	-11.3797
▁08	-11.3799
▁اجل	-11.38
▁قطاعات	-11.38
▁Gal	-11.3802
▁ordered	-11.3803
جلس	-11.3804
يكس	-11.3804
▁البشرة	-11.3805
▁diagnosis	-11.3806
▁المحيطة	-11.3806
▁أخطاء	-11.3806
▁"6)	-11.3807
▁وتستخدم	-11.3807
Gen	-11.3807
after	-11.3808
▁هونغ	-11.381
▁تود	-11.3811
▁figures	-11.3811
BR	-11.3812
NY	-11.3813
٢	-11.3816
صوت	-11.3816
لال	-11.3817
▁لتطبيق	-11.3817
▁معه	-11.3818
▁مطبخ	-11.382
▁dollar	-11.382
دس	-11.3823
زيل	-11.3826
▁الهيدروليكية	-11.3829
▁fan	-11.3831
عنوان	-11.3831
▁أموالك	-11.3833
▁ceiling	-11.3834
▁fundamental	-11.3834
▁سنغافورة	-11.3834
▁juice	-11.3835
▁percentage	-11.3836
ML	-11.3836
▁مطابقة	-11.3837
▁القمر	-11.3838
▁القريب	-11.384
ليا	-11.3841
▁carrying	-11.3842
▁الناجمة	-11.3844
▁Fla	-11.3844
▁اختبارات	-11.3846
▁warning	-11.3847
وظيفة	-11.3848
▁formal	-11.3849
▁admin	-11.3849
عزز	-11.3851
▁blow	-11.3851
تنمية	-11.3852
CL	-11.3855
تمتع	-11.3856
▁استكمال	-11.3857
▁مشغل	-11.3861
PU	-11.3861
▁Academic	-11.3862
▁religious	-11.3862
▁فساتين	-11.3862
▁television	-11.3862
▁Decision	-11.3862
▁وأسعار	-11.3862
rio	-11.3863
▁الصادرة	-11.3864
▁wonder	-11.3866
▁الحوادث	-11.3866
▁Commerce	-11.3867
▁films	-11.3869
▁Tim	-11.387
عروض	-11.3871
▁Practice	-11.3871
▁Feed	-11.3871
كنت	-11.3874
ISO	-11.3874
تب	-11.3874
▁التجمع	-11.3874
لوب	-11.3874
eva	-11.3875
دولة	-11.3875
Ad	-11.3876
▁واختيار	-11.3877
▁والر	-11.3877
ff	-11.3877
▁الأولي	-11.3878
▁المجمع	-11.3879
▁Investor	-11.3881
نتمنى	-11.3881
▁القول	-11.3881
▁span	-11.3884
gro	-11.3884
▁honest	-11.3885
▁أضف	-11.3885
▁خادم	-11.3886
▁الخصوص	-11.3887
قوى	-11.3889
▁partnerships	-11.3889
mir	-11.3889
▁Wood	-11.3889
vit	-11.389
▁Average	-11.389
▁marriage	-11.389
▁continuing	-11.389
▁horse	-11.389
▁modified	-11.389
▁Distribution	-11.3891
▁publication	-11.3891
ua	-11.3893
▁المشكلات	-11.3893
cel	-11.3894
َل	-11.3894
▁justice	-11.3896
تقنية	-11.3896
ثة	-11.3897
▁الاحتفال	-11.3897
▁SD	-11.3897
▁الض	-11.3898
▁نقدر	-11.3899
▁المتكاملة	-11.3899
town	-11.39
یة	-11.39
مراقبة	-11.3901
▁تجاوز	-11.3901
▁achievements	-11.3902
▁cake	-11.3904
▁regulation	-11.3905
يث	-11.3907
▁شاب	-11.3907
▁شرح	-11.3907
شركتنا	-11.3908
▁Explore	-11.3909
ini	-11.391
▁وقم	-11.3912
الصين	-11.3913
BM	-11.3913
أربع	-11.3916
▁مقال	-11.3917
صفح	-11.3917
▁houses	-11.3917
▁الحية	-11.3917
▁JoyLand	-11.3918
▁Lebanese	-11.3918
▁ائتمان	-11.3918
▁الناشئة	-11.3918
▁أبدًا	-11.3918
▁calling	-11.3919
▁draft	-11.392
رسال	-11.3922
▁متصفح	-11.3924
▁يتحدث	-11.3925
قية	-11.3927
▁EC	-11.393
being	-11.393
▁وخارج	-11.3931
يسر	-11.3931
▁ايضا	-11.3931
duct	-11.3934
▁سيد	-11.3934
قطاع	-11.3935
▁البث	-11.3935
حمام	-11.3936
ألف	-11.3938
▁Mag	-11.3938
▁Camp	-11.3939
each	-11.3942
▁ودول	-11.3943
▁المهنيين	-11.3946
▁رمضان	-11.3946
▁Switch	-11.3947
▁TI	-11.3947
▁Resort	-11.3947
▁اليمين	-11.3947
▁العفن	-11.3948
مكونات	-11.3951
▁نشط	-11.3951
▁Stand	-11.3953
▁Poly	-11.3956
▁والاجتماعية	-11.3956
▁الإيداع	-11.3956
▁لصالح	-11.3958
▁بجودة	-11.3958
أثناء	-11.3958
▁introduced	-11.3959
▁سجلات	-11.396
لتزم	-11.3961
▁Swiss	-11.3962
أشعة	-11.3963
▁HO	-11.3964
SME	-11.3964
▁Skin	-11.3965
▁06	-11.3966
خلف	-11.3966
LU	-11.3966
صدر	-11.3968
▁البشر	-11.3969
▁"[	-11.3974
▁العضلات	-11.3975
سار	-11.3975
مقاومة	-11.3975
▁Southeast	-11.3976
▁Suite	-11.3978
Power	-11.398
depend	-11.398
▁المسرح	-11.398
وقت	-11.3981
▁60%	-11.3981
▁لعلاج	-11.3981
▁purchases	-11.3983
▁بكفاءة	-11.3983
ضح	-11.3984
▁الممارسة	-11.3985
▁الحرف	-11.3985
▁addresses	-11.3986
▁managers	-11.3986
▁returns	-11.3988
▁لمعظم	-11.3989
▁Codes	-11.3989
▁ترا	-11.3991
ges	-11.3992
▁الجراحة	-11.3993
روتين	-11.3996
تاريخ	-11.3999
حين	-11.4
لسماح	-11.4001
▁الملح	-11.4001
▁تكرار	-11.4002
▁catalog	-11.4003
وسي	-11.4003
▁Fiesta	-11.4003
▁definition	-11.4003
▁ordinary	-11.4003
▁Relations	-11.4003
▁الحريق	-11.4004
▁fe	-11.4004
▁soil	-11.4004
▁المراجعة	-11.4004
▁اللازم	-11.4004
▁دينار	-11.4005
▁Drink	-11.4006
▁يخضع	-11.4007
▁السمع	-11.4007
سري	-11.4008
▁متزايد	-11.4008
▁واليابان	-11.4013
▁Tickets	-11.4014
▁Classic	-11.4016
▁التنفس	-11.4016
لبي	-11.4018
▁بنية	-11.4019
تقدير	-11.4021
أقل	-11.4021
▁المفيدة	-11.4022
lle	-11.4024
▁اخترت	-11.4025
▁النجوم	-11.4026
▁365	-11.4027
▁جمال	-11.4028
▁البريدية	-11.4028
▁المقابلة	-11.4031
▁pleasant	-11.4032
▁urban	-11.4032
▁entities	-11.4032
▁Front	-11.4032
▁والسعر	-11.4033
رع	-11.4034
quire	-11.4035
ew	-11.4035
دوم	-11.4036
▁تقديمها	-11.4037
▁الأعراض	-11.4038
توافر	-11.4039
▁فائقة	-11.4039
▁Gr	-11.4041
▁تحاول	-11.4041
▁cook	-11.4041
▁expansion	-11.4042
kw	-11.4043
▁Stocks	-11.4047
ضطر	-11.4047
لمس	-11.4048
▁Pu	-11.405
▁whereas	-11.405
▁الفورية	-11.4051
الجودة	-11.4054
▁Operation	-11.4055
▁يحق	-11.4056
▁Point	-11.4059
لر	-11.4059
▁تطبيقها	-11.4059
▁Los	-11.406
▁cloud	-11.406
▁transition	-11.406
▁للأعمال	-11.4061
▁الجليد	-11.4061
▁فعلت	-11.4061
هنا	-11.4061
▁regardless	-11.4062
ُّ	-11.4066
Under	-11.4067
تأسست	-11.4069
▁الجانبي	-11.4072
▁supplement	-11.4076
▁98	-11.4076
rent	-11.4076
▁توضيح	-11.4076
rill	-11.4077
مشاكل	-11.4077
▁التميز	-11.408
▁مسبقا	-11.408
▁remaining	-11.408
▁Rent	-11.408
▁kill	-11.408
tail	-11.4081
▁Term	-11.4081
▁Original	-11.4083
wn	-11.4084
اتصل	-11.4087
مساحة	-11.4089
▁Portugal	-11.4089
▁temporary	-11.4089
▁الانتخابات	-11.4089
▁للعديد	-11.4089
▁zero	-11.4089
▁إثارة	-11.4094
▁للعام	-11.4095
مجفف	-11.4095
▁organisations	-11.4095
▁التفصيلية	-11.4096
ودي	-11.4097
▁depth	-11.4098
level	-11.4098
▁لكنها	-11.4098
أمراض	-11.4099
▁الوجبات	-11.4099
▁رسمية	-11.41
Le	-11.4103
▁salt	-11.4103
fit	-11.4104
cast	-11.4105
1/	-11.4106
يئ	-11.4107
▁mi	-11.4108
لد	-11.4108
roid	-11.411
▁يومين	-11.4111
▁competitors	-11.4111
وضح	-11.4112
bat	-11.4114
▁أمراض	-11.4114
▁الأر	-11.4116
▁Camera	-11.4118
▁Skype	-11.4118
تخصيص	-11.4119
▁تج	-11.4121
▁تعامل	-11.4123
▁Xi	-11.4123
▁لتشغيل	-11.4123
▁سلة	-11.4124
White	-11.4124
▁OK	-11.4124
▁الوجهة	-11.4125
▁retain	-11.4126
▁ار	-11.4127
▁del	-11.4127
إنه	-11.4127
▁الأسلحة	-11.4128
▁صمم	-11.4129
▁الاعلام	-11.4129
▁لتسهيل	-11.4129
▁المربع	-11.4131
band	-11.4133
lim	-11.4134
▁تدابير	-11.4134
▁قض	-11.4136
▁warmly	-11.4137
▁حرق	-11.4138
▁فقدت	-11.4138
▁جيل	-11.4139
▁تابع	-11.4139
معدل	-11.4141
▁زمنية	-11.4142
▁paste	-11.4144
▁teen	-11.4145
▁trucks	-11.4145
رابط	-11.4145
▁Galaxy	-11.4146
▁Swedish	-11.4146
▁chocolate	-11.4146
▁عائلتك	-11.4146
▁المائة	-11.4147
▁carrier	-11.4147
▁الحائط	-11.4147
▁نرجو	-11.4147
▁جزر	-11.4148
▁Touch	-11.4149
قدرة	-11.4149
امية	-11.415
▁أعمالك	-11.4151
watch	-11.4152
اهتمام	-11.4153
Sample	-11.4153
▁totally	-11.4154
stone	-11.4154
▁logistics	-11.4155
▁Selection	-11.4155
▁النقطة	-11.4156
▁56	-11.4159
▁والتسويق	-11.4161
▁الاستيراد	-11.4161
▁pin	-11.4162
▁الشهادة	-11.4164
▁رجاء	-11.4165
war	-11.4166
حذر	-11.4169
▁النمسا	-11.417
space	-11.4171
وفا	-11.4172
▁Reviews	-11.4172
▁Pat	-11.4175
إكسسوارات	-11.4175
▁Orphek	-11.4175
▁Ramadan	-11.4175
▁optimal	-11.4175
▁الأصفر	-11.4175
▁تنتظر	-11.4175
▁submission	-11.4176
لّ	-11.4177
▁كيلو	-11.4178
ساح	-11.4179
▁تنافسي	-11.4179
▁العائد	-11.4182
pers	-11.4182
▁عملي	-11.4184
▁Function	-11.4185
ديد	-11.4186
▁إعدادات	-11.4187
mid	-11.4187
▁التدخل	-11.4188
▁ملم	-11.4191
▁مطالب	-11.4192
▁يشير	-11.4192
Customer	-11.4193
mag	-11.4195
Have	-11.4195
▁bedroom	-11.4195
تعبئة	-11.4197
berg	-11.42
run	-11.4201
▁faith	-11.4201
يلا	-11.4202
ورا	-11.4203
▁exposure	-11.4204
▁moisture	-11.4204
▁stakeholders	-11.4204
▁Par	-11.4205
▁مؤقت	-11.4206
▁Staff	-11.4206
▁السعادة	-11.4207
▁اللحظة	-11.4208
ONE	-11.421
pped	-11.4211
سى	-11.4211
▁تخطط	-11.4212
mus	-11.4212
روج	-11.4213
▁تب	-11.4214
▁ثنائي	-11.4215
▁fruits	-11.4216
GP	-11.4217
▁المثيرة	-11.4217
NT	-11.4219
gre	-11.4221
مجتمع	-11.4222
راجع	-11.4222
▁البولي	-11.4223
▁كبيرا	-11.4223
جزء	-11.4225
▁CC	-11.4225
ume	-11.4225
▁التنفيذية	-11.4226
▁مهما	-11.4227
▁lasting	-11.4228
▁instant	-11.4228
استثمار	-11.4231
▁tech	-11.4232
▁Remember	-11.4232
▁وأنها	-11.4233
▁تور	-11.4233
▁اللجوء	-11.4233
▁طراز	-11.4233
▁حياتنا	-11.4234
▁himself	-11.4234
▁Collect	-11.4235
فيديو	-11.4236
دخ	-11.4236
▁waterproof	-11.4237
تولى	-11.4241
سهم	-11.4242
▁restore	-11.4242
▁الاتفاق	-11.4247
▁Walk	-11.4247
▁wearing	-11.4247
لقي	-11.4248
ضار	-11.4249
▁والأدوات	-11.4251
▁سام	-11.4251
Products	-11.4251
▁mat	-11.4252
▁الغير	-11.4252
▁LO	-11.4252
▁واقع	-11.4252
▁parent	-11.4254
باحث	-11.4255
150	-11.4256
tell	-11.4257
▁اليونانية	-11.4257
لس	-11.4258
▁specialize	-11.426
oil	-11.4262
▁كيلومتر	-11.4263
▁Economy	-11.4263
▁الاسترخاء	-11.4263
▁disaster	-11.4263
▁إنذار	-11.4264
▁contents	-11.4265
▁أخ	-11.4265
رؤية	-11.4266
▁guys	-11.4266
▁Enterprise	-11.4268
وتو	-11.4268
▁البن	-11.4269
▁Block	-11.4269
▁موضح	-11.427
standard	-11.4271
عالية	-11.4271
ماذا	-11.4272
يُ	-11.4272
▁الوثيقة	-11.4273
toxic	-11.4274
▁Such	-11.4275
▁وقبل	-11.4275
▁المدرسية	-11.4275
▁المستقلة	-11.4276
▁عقل	-11.4276
طار	-11.4277
▁compact	-11.4278
1)	-11.4279
▁نعد	-11.4279
▁ancient	-11.4279
▁الإطارات	-11.428
ّق	-11.4281
Work	-11.4281
أسئلة	-11.4283
▁Educational	-11.4286
▁تدريبية	-11.4287
ثني	-11.4289
▁شكر	-11.4289
▁rare	-11.4291
▁heritage	-11.4292
▁السوداء	-11.4292
▁العدالة	-11.4292
▁تترددوا	-11.4292
▁المتحركة	-11.4292
▁Tank	-11.4294
▁والمطاعم	-11.4297
▁emissions	-11.4298
PH	-11.4298
▁Clients	-11.4298
▁القضية	-11.4298
hot	-11.4299
▁Uni	-11.4302
▁وعادة	-11.4303
▁لعدد	-11.4305
نش	-11.4307
اختيار	-11.4311
▁Than	-11.4311
▁consistent	-11.4316
▁تلف	-11.4316
كور	-11.4317
▁"4,	-11.4321
▁المستشفيات	-11.4321
▁closing	-11.4321
▁Repair	-11.4321
▁citizenship	-11.4321
▁قبرص	-11.4322
▁تمتد	-11.4323
▁difficulties	-11.4324
▁fa	-11.4324
▁يش	-11.4324
راه	-11.4326
وزارة	-11.4326
قانون	-11.4327
▁معلم	-11.433
▁joy	-11.4331
عز	-11.4332
cra	-11.4333
count	-11.4333
easy	-11.4335
anda	-11.4335
أيضا	-11.4336
▁فما	-11.4337
qua	-11.4338
▁conversation	-11.4341
▁boat	-11.4342
موضوع	-11.4343
▁خارجي	-11.4343
ّي	-11.4344
▁حجر	-11.4345
aries	-11.4345
▁10,000	-11.4349
▁versions	-11.435
▁daughter	-11.4351
▁duties	-11.4351
▁تجري	-11.4351
▁Pump	-11.4351
▁للسفر	-11.4351
سهل	-11.4353
ئت	-11.4353
▁وسيط	-11.4353
cell	-11.4355
▁الأضرار	-11.4356
tent	-11.4356
▁طبي	-11.4356
▁الجوال	-11.4357
▁flowers	-11.4358
تبرع	-11.4358
بشكل	-11.4358
بادئ	-11.4359
▁خصوصية	-11.4359
Price	-11.436
▁حقن	-11.436
field	-11.4361
Using	-11.4362
BE	-11.4363
سأل	-11.4366
▁استقرار	-11.4368
أدوات	-11.4369
▁التوتر	-11.4369
▁تصوير	-11.437
▁SM	-11.437
▁recognize	-11.4371
sim	-11.4371
سول	-11.4371
▁Imp	-11.4371
3/	-11.4372
▁programmes	-11.4374
▁صلى	-11.4374
rov	-11.4375
تقع	-11.4376
▁profession	-11.4377
ym	-11.4377
كتاب	-11.4378
▁confidential	-11.4379
sti	-11.438
▁الاحتياطي	-11.4381
▁wealth	-11.4381
▁"11.	-11.4381
▁1994	-11.4382
▁رف	-11.4387
▁جبل	-11.4387
التطبيق	-11.4388
function	-11.439
▁forever	-11.439
▁song	-11.4391
▁موصل	-11.4392
جامعة	-11.4392
fect	-11.4394
▁السمك	-11.4396
▁forest	-11.4397
▁مالك	-11.4398
▁structures	-11.4398
char	-11.4401
▁قتل	-11.4401
▁ثمن	-11.4404
فورد	-11.4405
آلة	-11.4405
▁وقالت	-11.4406
Don	-11.4406
▁withdraw	-11.4409
▁battle	-11.441
▁senior	-11.441
▁إفريقيا	-11.441
▁weekly	-11.441
▁Saint	-11.4411
ونيا	-11.4413
▁دل	-11.4413
UI	-11.4416
خطط	-11.4418
▁الركاب	-11.442
▁الاجتماعات	-11.442
▁para	-11.4421
محرك	-11.4422
▁معدنية	-11.4423
lig	-11.4423
▁سنتين	-11.4424
▁browse	-11.4426
▁Im	-11.4427
▁الحوار	-11.4427
▁كاف	-11.4428
▁controls	-11.4429
▁شنتشن	-11.4431
شاشة	-11.4432
ced	-11.4435
stop	-11.4435
بشر	-11.4436
▁بروتوكول	-11.4438
Gr	-11.4439
▁البولندية	-11.4439
▁وقتك	-11.4439
▁verification	-11.4439
يسي	-11.444
▁لعدة	-11.444
▁الزهور	-11.444
▁Impact	-11.444
▁وشمال	-11.444
hor	-11.444
▁nutrition	-11.444
▁Success	-11.4441
▁جوهر	-11.4441
▁الافتراضي	-11.4441
▁eco	-11.4442
▁emails	-11.4442
▁وتقدم	-11.4445
نقر	-11.4447
▁تبقي	-11.4447
▁يتعامل	-11.4447
▁انتشار	-11.4447
حركة	-11.4449
▁التسامح	-11.4449
position	-11.4449
ونه	-11.445
ild	-11.4451
لوم	-11.4451
▁Fr	-11.4451
▁Gift	-11.4452
▁46	-11.4453
أر	-11.4453
ui	-11.4453
▁".""	-11.4453
▁colleagues	-11.4458
▁sur	-11.4458
▁القوى	-11.4459
Dr	-11.446
▁أسئلتك	-11.4461
Gu	-11.4461
▁Expert	-11.4461
يكو	-11.4461
▁Additional	-11.4466
tz	-11.4467
▁مستمرة	-11.4467
mil	-11.4468
▁Mor	-11.4469
▁المرح	-11.4469
▁identification	-11.4469
▁belief	-11.4469
▁المسح	-11.447
زوج	-11.4471
▁أضواء	-11.4471
▁عادية	-11.4471
▁Notice	-11.4472
▁القصير	-11.4473
flow	-11.4473
▁ورقم	-11.4474
عامل	-11.4475
▁والفن	-11.4477
▁Hope	-11.4477
▁ومناسبة	-11.4477
▁estimated	-11.4478
▁SEO	-11.4478
▁translated	-11.4478
▁تحذير	-11.4479
▁ومست	-11.4481
▁نفسي	-11.4482
▁Vietnam	-11.4482
▁لفة	-11.4483
take	-11.4483
▁الأع	-11.4484
فجر	-11.4485
رمي	-11.4485
▁campaigns	-11.4487
داع	-11.4487
▁مختبر	-11.4488
▁SU	-11.4489
▁معرف	-11.449
قواعد	-11.449
▁lo	-11.449
word	-11.4491
▁Schools	-11.4492
▁Views	-11.4492
نرحب	-11.4492
▁played	-11.4495
مظهر	-11.4498
lite	-11.4499
▁mirror	-11.4499
▁territory	-11.4499
▁Degree	-11.4499
▁الصلاة	-11.4499
▁recognition	-11.4499
▁hurt	-11.45
Fast	-11.45
تعتبر	-11.4501
ذاب	-11.4501
lation	-11.4505
piece	-11.4506
شعاع	-11.4507
سرع	-11.4507
▁أصدقاء	-11.4507
▁cla	-11.4508
▁تتغير	-11.451
http	-11.4511
▁fishing	-11.4511
نح	-11.4511
nel	-11.4512
eur	-11.4513
روبي	-11.4514
نشط	-11.4516
Pay	-11.4516
▁previously	-11.4517
▁HIV	-11.4517
▁أتمنى	-11.4518
▁يعلم	-11.4519
▁Develop	-11.4519
انضم	-11.4521
▁براءات	-11.4526
pass	-11.4526
▁Side	-11.4526
uf	-11.4528
▁dialogue	-11.4529
▁تشتري	-11.453
▁التاريخية	-11.453
سيد	-11.4531
▁Mid	-11.4531
▁PET	-11.4532
▁بولي	-11.4532
▁gap	-11.4532
▁deadline	-11.4533
put	-11.4534
aq	-11.4536
▁المجوهرات	-11.4537
▁سنويا	-11.4537
شعار	-11.4537
▁Hol	-11.4541
"")	-11.4542
طرف	-11.4544
▁نصيحة	-11.4545
ذا	-11.4548
▁مستخدمي	-11.4549
LAN	-11.4549
▁عضوية	-11.4554
MT	-11.4554
ذار	-11.4555
▁نهائي	-11.4556
▁occasions	-11.4558
▁Toyota	-11.4559
▁immigration	-11.4559
▁والمتنقلة	-11.4559
▁coupon	-11.4559
▁وفريق	-11.4559
Take	-11.4559
▁renewable	-11.456
جمال	-11.456
▁1992	-11.4561
▁منتظم	-11.4561
▁الخلايا	-11.4564
▁الخشبية	-11.4564
General	-11.4565
مارس	-11.4566
nn	-11.4566
play	-11.4568
شهادة	-11.4568
▁periods	-11.457
▁رصد	-11.4571
▁Advertising	-11.4571
▁developments	-11.4571
▁المعروف	-11.4572
RY	-11.4573
case	-11.4578
bet	-11.458
سكا	-11.4582
▁volunteer	-11.4582
5:	-11.4583
▁na	-11.4584
حترم	-11.4584
▁stated	-11.4585
▁Tour	-11.4585
kar	-11.4585
▁بنيت	-11.4586
▁danger	-11.4589
▁intervention	-11.4589
▁investigation	-11.4589
▁الدراجة	-11.4589
▁الخل	-11.459
▁planned	-11.459
bon	-11.4591
▁dr	-11.4591
▁تشخيص	-11.4591
hua	-11.4592
ستن	-11.4592
▁جرب	-11.4594
▁disc	-11.4594
▁exhibitions	-11.4595
▁أف	-11.4596
▁اترك	-11.4597
باني	-11.4597
▁tough	-11.4597
▁الإبداع	-11.4597
grad	-11.4601
▁hole	-11.4604
▁كهربائي	-11.4605
▁tolerance	-11.4605
AG	-11.4606
▁Dating	-11.4606
▁يؤ	-11.4608
ENG	-11.461
▁متحف	-11.4611
▁خطيرة	-11.4614
erial	-11.4614
oid	-11.4615
▁الممتلكات	-11.4617
▁conferences	-11.4618
▁المتوسطة	-11.4618
▁إذ	-11.4618
▁Chrome	-11.4619
▁Ukrainian	-11.4619
▁empty	-11.4619
▁surrounding	-11.4619
▁visible	-11.4619
▁resume	-11.4619
▁facing	-11.462
▁Finland	-11.462
locator	-11.462
▁Cu	-11.4623
▁Rates	-11.4624
▁وتحليل	-11.4624
▁والأخضر	-11.4625
▁Sen	-11.4625
▁الفاكهة	-11.4625
▁الثلج	-11.4626
▁الاستعداد	-11.4627
ربع	-11.4628
▁المجتمعية	-11.4628
▁خذ	-11.4629
▁حياتهم	-11.4629
pens	-11.4631
▁الكابلات	-11.4633
▁formed	-11.4638
▁hack	-11.4639
▁لحساب	-11.464
▁smoking	-11.4642
izer	-11.4643
▁precise	-11.4643
اتجاه	-11.4645
غرفة	-11.4648
▁column	-11.465
var	-11.465
معامل	-11.465
▁lunch	-11.465
▁closely	-11.4651
round	-11.4651
AA	-11.4653
▁نحصل	-11.4657
▁rely	-11.4657
▁أحذية	-11.4657
▁Furniture	-11.4658
▁reset	-11.4659
نفذ	-11.466
▁الاستهلاكية	-11.4662
PER	-11.4662
امتثال	-11.4662
International	-11.4663
Description	-11.4663
ula	-11.4664
▁بالتواصل	-11.4664
Soft	-11.4666
▁Sy	-11.4666
▁Samples	-11.4666
كلمة	-11.4667
▁يجعلها	-11.4667
ima	-11.4668
شراك	-11.4668
▁passengers	-11.4669
▁النارية	-11.467
▁AG	-11.467
30%	-11.4675
▁Audio	-11.4675
▁earlier	-11.468
▁entrance	-11.468
▁مقدار	-11.4681
▁Retail	-11.4682
700	-11.4682
تسع	-11.4683
انظر	-11.4683
▁Focus	-11.4683
▁شحنة	-11.4684
نفق	-11.4685
▁المنصات	-11.4686
▁occurs	-11.4686
▁taxi	-11.4689
gh	-11.4689
▁الرقابة	-11.4689
▁والمناطق	-11.4691
بيئة	-11.4691
dress	-11.4691
رغ	-11.4692
style	-11.4692
▁delivering	-11.4692
▁Unlimited	-11.4694
▁وبين	-11.4695
▁اكتب	-11.4696
▁فعاليات	-11.4697
▁Jan	-11.4698
Last	-11.4699
gle	-11.4701
▁airline	-11.4702
▁170	-11.4703
▁IF	-11.4705
▁licensed	-11.4707
▁مواصلة	-11.4708
▁suffer	-11.4709
▁غالبا	-11.4709
▁المتطورة	-11.471
▁اسعار	-11.4711
▁فترات	-11.4711
▁newspaper	-11.4711
نوعية	-11.4711
▁Worldwide	-11.4712
▁fla	-11.4712
▁الرأي	-11.4712
لاستفادة	-11.4712
cial	-11.4717
▁CL	-11.4722
▁Older	-11.4722
▁اسمح	-11.4722
عار	-11.4725
▁التراث	-11.4726
ؤل	-11.4726
أل	-11.4727
▁moved	-11.4728
▁activate	-11.4731
-2019	-11.4734
wards	-11.4735
▁Ce	-11.4735
▁عامين	-11.4737
ibility	-11.474
▁موافق	-11.4741
▁automotive	-11.4741
▁أبحاث	-11.4741
▁injury	-11.4741
▁كرسي	-11.4741
▁ongoing	-11.4741
▁العشب	-11.4742
▁أحصل	-11.4743
▁يديك	-11.4744
post	-11.4744
ودة	-11.4745
▁واجهت	-11.4748
II	-11.475
تسبب	-11.475
▁الدروس	-11.4751
فعال	-11.4751
▁الأخ	-11.4752
عضو	-11.4753
▁حساسية	-11.4753
▁المراكز	-11.4754
▁وتجنب	-11.4754
فان	-11.4755
rush	-11.4755
▁fold	-11.4756
جدول	-11.4757
▁Battery	-11.4757
▁Player	-11.4757
▁Easily	-11.4757
▁يدفع	-11.4758
▁مرشح	-11.4758
▁كميات	-11.4759
▁بجد	-11.4759
▁FOB	-11.4759
وأ	-11.4759
▁toys	-11.476
▁EMS	-11.4763
▁ta	-11.4765
زور	-11.4765
لدي	-11.4767
الحصول	-11.4768
▁السنين	-11.4768
▁أقسام	-11.477
▁occupation	-11.4772
ريت	-11.4772
▁neck	-11.4772
▁ورش	-11.4773
GU	-11.4773
▁الوظيفي	-11.4775
تاي	-11.4775
اخت	-11.4777
▁overview	-11.4777
▁للشحن	-11.478
▁فيمكنك	-11.4782
▁اختراع	-11.4783
▁والكفاءة	-11.4783
▁والنساء	-11.4784
جذب	-11.4784
▁المطعم	-11.4785
حوالي	-11.4788
▁Val	-11.4788
▁Strategic	-11.4788
▁القاعدة	-11.4792
▁الفائز	-11.4792
صادر	-11.4793
▁البيض	-11.4796
▁former	-11.4796
hou	-11.4796
▁جانبية	-11.4797
▁applicant	-11.4797
جائزة	-11.4799
▁relax	-11.4799
TF	-11.48
▁minor	-11.4802
▁affiliate	-11.4802
إست	-11.4803
▁HR	-11.4803
▁الصنع	-11.4804
توريد	-11.4805
خيار	-11.4806
لوج	-11.4807
hang	-11.4808
▁specify	-11.4808
▁exit	-11.4809
▁السي	-11.481
▁الحبر	-11.4811
▁قادرون	-11.4813
▁استثنائية	-11.4814
NU	-11.4815
▁العلاجات	-11.4816
▁مفصل	-11.4816
▁السلسلة	-11.4818
trans	-11.4818
sea	-11.4819
▁دوري	-11.4819
▁الاختلافات	-11.482
▁destroy	-11.4821
▁Image	-11.4824
eri	-11.4824
▁الائتمانية	-11.4825
▁Train	-11.4826
▁الحصرية	-11.4828
▁صافي	-11.4829
▁Tool	-11.483
▁Federation	-11.4833
▁الاستدامة	-11.4833
▁Consulting	-11.4833
▁discharge	-11.4834
▁Dress	-11.4835
▁0.2	-11.4835
▁محلي	-11.4835
▁regulatory	-11.4835
▁للمعايير	-11.4836
▁pink	-11.4837
▁Ph	-11.4838
▁المشترين	-11.4838
عملية	-11.484
جود	-11.4842
LC	-11.4842
▁Whether	-11.4843
Red	-11.4843
ule	-11.4844
[...]
